<pad>	0
<s>	0
</s>	0
<unk>	0
▁.	-2.37064
▁	-3.55161
요	-4.01572
▁?	-4.3933
가	-4.39607
을	-4.39676
도	-4.54087
이	-4.78144
는	-4.82538
게	-4.85747
▁거예요	-4.95616
은	-4.98946
고	-5.00745
를	-5.01633
지	-5.12291
세요	-5.13859
▁수	-5.32813
의	-5.36846
보세요	-5.38304
▁너무	-5.42857
네요	-5.46251
▁것	-5.48739
해보세요	-5.53743
▁좋아하는	-5.54184
▁더	-5.55717
▁거	-5.57899
▁사람	-5.58008
서	-5.5816
▁나	-5.59535
▁잘	-5.60427
죠	-5.61238
▁안	-5.68027
면	-5.73966
한	-5.76208
에	-5.76518
▁사랑	-5.87405
▁많이	-5.89924
▁좋은	-5.91931
봐요	-5.9732
히	-5.9979
만	-6.00476
▁좀	-6.05202
▁!	-6.05391
▁그	-6.05508
▁사람이	-6.0755
▁같아요	-6.08035
▁있을	-6.08278
랑	-6.08627
▁이별	-6.11092
▁생각	-6.11887
▁게	-6.12113
▁싶어	-6.12265
▁있어요	-6.12912
으로	-6.15163
▁없어	-6.1633
로	-6.17478
▁때	-6.18925
▁내	-6.18947
▁마음	-6.20142
길	-6.22686
▁썸	-6.23169
▁같아	-6.24565
나	-6.30621
하세요	-6.3159
하고	-6.33202
▁다	-6.33313
▁마세요	-6.39081
▁건	-6.40609
▁말	-6.41233
▁해	-6.42002
▁이제	-6.43091
▁오늘	-6.45145
▁마음이	-6.49641
할	-6.50089
▁있는	-6.51112
▁내가	-6.51176
▁왜	-6.54237
네	-6.56545
이에요	-6.57643
다	-6.57932
▁다른	-6.58687
▁연락	-6.59188
에서	-6.60237
▁어떻게	-6.61162
는데	-6.61298
▁남자친구	-6.61396
▁돼	-6.6281
▁있	-6.63502
▁싶다	-6.65849
▁뭐	-6.65956
▁시간이	-6.67784
▁여자친구	-6.68927
▁다시	-6.69079
야	-6.70041
▁한	-6.72303
일	-6.72608
▁있어	-6.73376
▁정말	-6.74006
▁하는	-6.74226
▁또	-6.74687
▁저	-6.7473
▁연애	-6.75021
▁일	-6.75375
▁생각해	-6.75489
▁가	-6.75737
▁좋을	-6.76067
▁못	-6.76223
▁않아	-6.76475
겠어요	-6.7664
▁친구	-6.7812
▁걸	-6.78913
하는	-6.79182
▁수도	-6.80346
▁좋아	-6.81386
니다	-6.82643
▁하고	-6.85425
▁조금	-6.86024
▁같이	-6.86867
▁자신	-6.8774
▁지금	-6.88667
▁될	-6.88985
▁할	-6.89219
▁혼자	-6.90529
▁여자	-6.90756
어	-6.91533
에요	-6.91935
▁그런	-6.93271
인데	-6.94307
▁자꾸	-6.94695
▁시간	-6.95204
▁당신	-6.96677
▁아니	-6.96761
▁바	-6.96781
하지	-6.97647
▁좋겠어	-6.98196
년	-6.98841
으면	-6.99126
▁일이	-7.00838
▁힘들	-7.00939
▁저도	-7.01062
가봐요	-7.02417
기	-7.02972
해	-7.03683
▁진짜	-7.04202
▁바랄게요	-7.04959
든	-7.0511
▁이	-7.06312
▁먼저	-7.06363
거예요	-7.06368
▁있을까	-7.07077
▁제가	-7.07243
과	-7.07771
▁될까	-7.0805
▁하나	-7.08404
한테	-7.09215
▁헤어진지	-7.09334
▁사	-7.09583
해요	-7.09765
▁살	-7.10922
▁없는	-7.11676
▁아무	-7.12698
거	-7.12913
▁만나	-7.1303
▁선물	-7.15024
▁계속	-7.16394
▁힘든	-7.17212
라고	-7.18825
▁좋아요	-7.18945
▁애	-7.19252
▁그럴	-7.19535
니까	-7.20003
하게	-7.2025
데	-7.2113
▁먹고	-7.22114
▁전	-7.22389
랍	-7.22652
인	-7.2326
▁짝녀	-7.23493
▁사랑이	-7.23611
운	-7.23752
라	-7.23899
▁참	-7.24773
어요	-7.25066
▁드세요	-7.25699
▁이야기	-7.26021
보다	-7.26312
▁서로	-7.26692
▁좋겠	-7.27085
▁좋죠	-7.27369
겠죠	-7.27383
▁남자	-7.27553
▁있나	-7.27606
▁방법	-7.27877
하면	-7.28047
▁짝사랑	-7.30388
▁술	-7.30825
합니다	-7.31474
▁결혼	-7.31739
▁힘들어	-7.31902
▁아직	-7.32275
▁오	-7.32524
지만	-7.32612
나봐	-7.32671
것도	-7.32812
씩	-7.33341
▁준비	-7.3345
▁날	-7.3384
던	-7.3446
▁하지	-7.349
▁중	-7.35417
▁눈	-7.35724
▁그래	-7.35732
상	-7.35872
지도	-7.36411
▁몰라	-7.3753
까	-7.38419
▁하	-7.38845
▁많은	-7.38958
▁그렇	-7.39423
주세요	-7.39574
▁,	-7.39692
▁보세요	-7.3979
▁들어	-7.41099
해도	-7.41268
니	-7.4179
▁말해보세요	-7.41988
▁보고	-7.42444
▁데이트	-7.42477
▁충분	-7.44163
▁무슨	-7.45364
▁할까	-7.45437
▁줄	-7.45858
▁짝남이	-7.46526
▁그냥	-7.47661
래	-7.48349
▁돈	-7.48872
▁공부	-7.48949
▁이렇게	-7.48987
▁친구가	-7.49047
까지	-7.49209
▁되	-7.49352
▁어떤	-7.49607
▁안돼	-7.50181
▁고백	-7.50303
▁없	-7.51137
▁힘드네	-7.51348
와	-7.51666
▁사람은	-7.52372
▁싫어	-7.52411
▁나만	-7.52979
▁대화	-7.53053
봅니다	-7.53113
▁함께	-7.53986
다고	-7.54831
대로	-7.5487
▁1	-7.55099
▁하루	-7.55931
▁머리	-7.56152
입니다	-7.56321
▁2	-7.5666
에게	-7.5708
▁오래	-7.57265
▁내일	-7.57623
▁카톡	-7.58079
▁너	-7.58199
▁이유	-7.58268
했어	-7.58338
▁하면	-7.58617
▁새로운	-7.58923
해주세요	-7.5944
▁관심	-7.59769
▁짝남	-7.60102
▁고민	-7.60295
▁어떨까요	-7.60431
예요	-7.61183
▁많아	-7.61429
▁듯	-7.61697
▁아	-7.6189
▁있는데	-7.62223
▁알	-7.62243
▁사랑하는	-7.62504
▁헤어진	-7.62762
▁후	-7.62975
▁감정	-7.64457
▁3	-7.64542
▁시작	-7.65056
▁타는	-7.6624
▁생각이	-7.66468
▁여행	-7.66759
▁주세요	-7.67084
▁연락이	-7.67254
인지	-7.68178
▁말고	-7.70125
심	-7.70154
항	-7.71606
할까	-7.71657
▁남	-7.71887
리	-7.72865
▁싶은	-7.73046
▁않는	-7.73141
▁해도	-7.73325
진	-7.7346
▁운동	-7.74549
▁정리	-7.74649
▁이젠	-7.74662
▁만큼	-7.74926
▁따라	-7.75213
▁마음에	-7.75307
▁해야	-7.75362
질	-7.75774
▁열	-7.75787
른	-7.75821
▁스트레스	-7.76222
▁도움	-7.76297
▁같은데	-7.76322
▁누구	-7.76621
▁나한테	-7.76705
▁끝	-7.76735
▁그녀	-7.7677
▁후회	-7.76864
부터	-7.7698
▁가고	-7.77044
▁만날	-7.77456
▁우리	-7.77743
▁올	-7.77858
▁쉽지	-7.781
▁기억	-7.7826
대	-7.783
▁좋겠다	-7.78474
는게	-7.78588
하죠	-7.78604
▁제	-7.79052
▁모르겠어	-7.79292
▁맘	-7.79462
▁곳	-7.79616
▁않을	-7.80342
▁쉬	-7.80741
▁바라요	-7.81386
▁기분	-7.8161
▁꿈	-7.81718
자	-7.82302
건	-7.82358
▁어때	-7.8274
▁이별을	-7.82801
▁반	-7.82844
▁없네	-7.83349
▁찾아	-7.83787
▁같은	-7.83855
▁전화	-7.8398
수	-7.84114
▁문제	-7.84608
▁집	-7.86177
거라	-7.86349
해서	-7.86791
▁보	-7.86852
려	-7.86936
▁좋을까	-7.87007
▁직접	-7.87066
▁얼	-7.87201
▁꼭	-7.87931
▁언제	-7.88021
▁만들어	-7.88794
▁결국	-7.89688
▁기대	-7.90031
걸	-7.90316
▁볼	-7.90764
▁않	-7.91408
▁점	-7.91666
▁한달	-7.91815
▁와	-7.92046
▁괜찮아요	-7.92182
거나	-7.92572
▁변화	-7.93355
▁요즘	-7.9336
▁어디	-7.93664
▁피	-7.93705
▁되는	-7.94108
▁가는	-7.94256
겠네	-7.94445
적인	-7.96086
려고	-7.96472
습니다	-7.96652
▁않은	-7.97005
▁여자애	-7.97182
▁잠	-7.97948
▁알아	-7.98091
▁말아	-7.9818
▁나는	-7.98391
▁있죠	-7.98656
▁자	-7.99168
▁아직도	-7.99221
자고	-7.99251
긴	-7.99378
점	-7.9948
▁필요해	-8.00107
▁비	-8.01039
이라	-8.01117
▁믿어	-8.01128
▁집에	-8.01212
▁싶은데	-8.01379
▁거라	-8.01465
▁중요한	-8.01519
▁아파	-8.01649
▁보내	-8.0193
▁없다	-8.01941
▁마음의	-8.01981
만큼	-8.03143
▁어제	-8.03187
▁모르는	-8.03194
▁노래	-8.03262
▁때문에	-8.03337
▁늦	-8.03602
▁연락을	-8.04216
▁마	-8.04615
▁아니라	-8.05012
▁물어보	-8.0508
▁회사	-8.05274
▁매일	-8.05652
수록	-8.05819
▁가지	-8.05838
간	-8.06296
▁현실	-8.06393
▁중요해	-8.0656
▁큰	-8.06605
▁나이	-8.06661
▁시간을	-8.06878
▁좋아해	-8.06914
▁들	-8.06929
대한	-8.07159
▁상처	-8.07252
▁마지막	-8.07347
▁완전	-8.0738
▁남자애	-8.07391
군요	-8.07437
▁가장	-8.07528
▁인생	-8.07559
하는데	-8.07606
아	-8.07814
처럼	-8.08075
▁오늘도	-8.08457
하기	-8.09095
함	-8.10149
▁관계	-8.10563
▁해볼까	-8.10648
▁이런	-8.11218
장	-8.11555
▁밥	-8.11568
▁나쁜	-8.11684
▁딱	-8.11877
▁썸남	-8.12177
▁여친	-8.1229
들	-8.12847
▁차	-8.12891
▁보는	-8.12968
▁헤어짐	-8.12994
제일	-8.13166
하네	-8.13229
▁미련	-8.1333
러	-8.13651
▁핸드폰	-8.14049
▁같애	-8.14052
▁모든	-8.14102
▁용기	-8.1413
드	-8.14145
적	-8.14232
▁자기	-8.14689
▁남자가	-8.14729
▁난	-8.14914
▁기	-8.15031
▁정	-8.15234
▁얼마	-8.15254
▁몸	-8.15257
겠지	-8.15328
▁맛있	-8.15707
천	-8.15841
▁살고	-8.16084
개월	-8.16188
▁길	-8.16311
▁어느	-8.16372
▁갑자기	-8.16374
▁결정	-8.16461
▁뭘	-8.16697
▁잘할	-8.17167
▁많	-8.17273
이나	-8.17313
▁헤어지고	-8.17406
져	-8.17627
일까	-8.17866
기도	-8.17873
▁타	-8.18088
까요	-8.18113
▁기다려	-8.1816
▁천	-8.18209
▁만나는	-8.18456
▁확신	-8.18767
이야	-8.18804
▁알았는데	-8.18821
▁뭘까	-8.18941
▁사진	-8.1907
▁잘하는	-8.19167
다면	-8.19207
주	-8.19408
▁사는	-8.19576
▁왔어	-8.19862
때	-8.19927
▁재회	-8.20287
▁번	-8.20359
▁사람들이	-8.206
▁했는데	-8.2086
▁되나	-8.21021
▁스스로	-8.21194
▁가끔	-8.21197
▁모두	-8.21244
▁예의	-8.21247
▁사랑에	-8.21309
▁아침	-8.21389
▁말씀	-8.22256
▁입	-8.22442
▁상대방	-8.227
방	-8.22915
▁당신이	-8.23029
▁놀	-8.23198
▁없을	-8.23238
▁덜	-8.23306
▁걸까	-8.23317
▁필요	-8.23381
하면서	-8.23434
▁봐	-8.2344
▁엄청	-8.23448
▁어떡해	-8.23694
▁자주	-8.23732
▁앞에	-8.23736
▁커피	-8.23737
▁날씨	-8.23746
▁남친	-8.23765
▁물	-8.23853
임	-8.23862
▁짝남한테	-8.23896
▁있었나	-8.24077
차	-8.24349
▁걱정	-8.2473
▁맞는	-8.25012
▁인연이	-8.25024
더니	-8.25278
▁기분이	-8.25418
▁정리가	-8.25681
▁조심하	-8.25706
음	-8.25811
▁합니다	-8.25864
▁선택	-8.25944
에는	-8.26014
▁된	-8.26064
▁연습	-8.26094
▁쉬운	-8.26225
▁엄마	-8.26258
▁대	-8.26321
▁화	-8.26334
▁말이	-8.2644
▁소개팅	-8.2644
▁5	-8.26529
▁사이	-8.26546
▁새	-8.26657
▁한번	-8.26721
릴게요	-8.26822
▁아닌	-8.26839
▁가져	-8.26909
면서	-8.27215
▁진심	-8.2728
▁사람한테	-8.27489
했던	-8.27661
▁연락해	-8.27704
▁받아	-8.28235
▁처음	-8.28303
▁필요한	-8.28619
▁의미	-8.28679
듯	-8.28683
만에	-8.28805
▁많았	-8.28808
▁있다면	-8.29126
▁눈물	-8.29223
▁그만	-8.29923
된	-8.3008
▁좋아할	-8.30797
졌어	-8.30986
정	-8.31299
▁후폭풍	-8.3172
▁않았	-8.31866
▁모르겠어요	-8.31981
시	-8.32233
▁만나고	-8.32713
▁몇	-8.32871
▁손	-8.32926
▁추억	-8.3299
▁정도	-8.33058
여	-8.33257
▁부	-8.33289
▁영화	-8.33542
▁나와	-8.34092
▁갈	-8.342
마다	-8.34279
▁신경	-8.34368
▁빨리	-8.34423
▁날이	-8.34516
▁잔	-8.34577
▁모습	-8.34748
▁막	-8.34836
▁상대	-8.351
▁아픈	-8.35635
달	-8.35886
▁기다리	-8.36811
▁행복	-8.36897
▁두	-8.36924
▁잘하고	-8.37201
▁벌써	-8.37228
▁귀	-8.37249
▁꽃	-8.37274
▁6	-8.37359
▁부모님	-8.37547
▁4	-8.37701
▁괜찮은	-8.37712
치	-8.37954
▁얼굴	-8.38872
▁사람들	-8.38888
▁언젠	-8.38899
▁선	-8.39364
▁바람	-8.39367
▁적	-8.40075
야지	-8.40372
▁감기	-8.40388
▁예뻐	-8.40497
▁이별이	-8.40521
▁추천	-8.40619
▁안해	-8.40626
었어	-8.40672
▁만난	-8.40901
마세요	-8.41095
▁네	-8.41274
▁같네	-8.41399
▁줘	-8.42107
금	-8.42517
▁가능	-8.42529
▁갖	-8.4263
날	-8.42835
▁금	-8.42962
찍	-8.43082
▁자신이	-8.4313
▁이상	-8.43233
▁잠시	-8.43236
▁생각나	-8.43324
▁힘내세요	-8.43555
▁신경쓰지	-8.43562
▁것이	-8.43614
일째	-8.43696
달라고	-8.43834
▁느낌	-8.43991
구	-8.44118
▁약	-8.44473
제	-8.4454
▁무	-8.44616
▁예쁘	-8.44666
▁가슴	-8.44887
▁하는데	-8.44919
▁끝나	-8.45208
인가봐	-8.45635
인가	-8.45862
▁싶어요	-8.45894
▁아픔	-8.4606
▁넘	-8.46185
▁아닌데	-8.46416
▁되지	-8.46536
▁소리	-8.46587
▁만남	-8.46669
▁고민이	-8.47048
▁뭐라	-8.47177
▁표현	-8.47316
▁바쁘	-8.47433
▁사귀고	-8.47711
▁힘들다	-8.47825
▁보면	-8.48369
봐	-8.48504
릴	-8.48864
▁여친이	-8.49062
▁티	-8.49145
▁직장	-8.49488
▁슬픈	-8.4955
▁어려워	-8.49556
▁만들	-8.49583
▁화장	-8.49597
▁이해	-8.49608
▁궁금해	-8.49952
▁남편이	-8.49972
▁받고	-8.50123
▁힘이	-8.50215
▁않죠	-8.50266
했는데	-8.50596
실	-8.50758
▁알바	-8.51241
것	-8.51809
▁가야	-8.51841
이랑	-8.51858
번	-8.51861
했나봐	-8.52075
줄	-8.52216
▁전에	-8.52751
▁주무	-8.52886
볼까	-8.53072
린	-8.531
▁원하는	-8.53107
▁게임	-8.53113
▁나서	-8.53687
▁재미	-8.53693
▁다가가	-8.54123
▁긴	-8.54218
▁힘들지	-8.54295
▁연락하고	-8.54609
▁학교	-8.54687
▁아는	-8.54796
▁됐어	-8.54952
▁동	-8.55123
▁떠나	-8.55265
▁호감	-8.55309
▁썸남이	-8.55762
▁위해	-8.56073
▁삶	-8.56331
▁곧	-8.5639
▁자체	-8.56391
▁여유	-8.56391
신	-8.56435
▁못하겠어	-8.56506
▁일어나	-8.56555
▁힘들게	-8.56566
▁해주세요	-8.56941
▁글	-8.57042
▁아닐까	-8.57136
▁뭐야	-8.57164
▁사귀는	-8.5727
▁실수	-8.57622
▁건강	-8.57796
▁법	-8.57954
텐데	-8.57986
▁차단	-8.57991
통	-8.57997
용	-8.58931
▁쉽	-8.59206
▁옷	-8.59405
▁가기	-8.59471
발	-8.59613
▁나중에	-8.59912
▁귀찮아	-8.59921
▁즐거	-8.59933
▁소중	-8.59951
▁싫다	-8.59964
없이	-8.59979
▁괜찮을까	-8.60006
▁깨	-8.60011
▁먹어야지	-8.60016
▁꿈에	-8.60234
▁먹으면	-8.60527
▁사랑했던	-8.60561
▁코	-8.60643
▁물어보는	-8.60775
▁주	-8.60844
▁보이	-8.61013
▁다음에	-8.61301
▁거죠	-8.61305
▁그분	-8.61343
▁힘들겠지	-8.61761
▁편하	-8.61819
▁노력	-8.62028
트	-8.6299
▁차이	-8.63022
▁모	-8.63635
▁보통	-8.6365
▁만났어	-8.63683
▁자신감	-8.63709
▁편이	-8.63732
▁좋아하면	-8.63781
▁확실한	-8.6381
▁별	-8.63826
▁따뜻	-8.63863
했어요	-8.64137
냐	-8.64211
▁데	-8.64235
▁당	-8.64241
▁못하는	-8.64451
▁먹	-8.64453
▁감	-8.64586
▁좋아하게	-8.64727
▁챙겨	-8.64892
▁않을까	-8.64991
▁모르	-8.65075
▁그녀를	-8.65226
▁중에	-8.65231
▁설레	-8.65481
▁누	-8.65555
▁없이	-8.65765
▁헤어지	-8.65899
▁했어	-8.65925
▁생각할	-8.6595
▁구	-8.66075
▁잘못	-8.662
해야	-8.6636
▁지	-8.66551
있는	-8.6657
▁행복해	-8.6684
▁대해	-8.67074
▁비싸	-8.67268
▁우산	-8.67457
▁헤어졌습니다	-8.6746
▁받을	-8.6749
▁sns	-8.67518
▁작은	-8.67522
▁맨날	-8.67631
▁미리	-8.67653
▁뿐	-8.67654
▁곳이	-8.67704
▁맛	-8.67717
▁짝녀한테	-8.67811
▁중요하지	-8.67868
▁목	-8.6792
▁친구한테	-8.68015
▁드는	-8.68052
답	-8.68405
▁주는	-8.6841
▁놀아	-8.68422
▁있으	-8.68502
▁연인	-8.68719
▁많아요	-8.6877
며	-8.68826
▁잠이	-8.69091
▁첫사랑	-8.69159
▁맛있는	-8.69161
▁간다	-8.69199
보	-8.69255
내	-8.69279
▁고생	-8.69397
▁서로에	-8.70379
▁아프	-8.70402
▁끝이	-8.70471
▁행동	-8.70592
▁카페	-8.70638
▁물어	-8.70677
▁답	-8.70843
▁이별후	-8.70881
▁배	-8.7095
▁위로	-8.7124
▁다를	-8.71347
▁만	-8.71446
▁안녕	-8.71446
▁생길	-8.71452
▁좋다	-8.71452
▁종교	-8.71453
▁약속	-8.71454
▁기회	-8.71457
▁바쁜	-8.71458
▁시험	-8.71521
▁잠깐	-8.71521
▁위	-8.71524
▁하늘	-8.71525
▁고민이야	-8.71704
▁책	-8.71705
소	-8.71957
▁말해	-8.72055
디	-8.72369
▁진정	-8.72902
▁세상	-8.73264
▁되네	-8.73527
▁좋아하는데	-8.73617
▁이별의	-8.73735
▁알게	-8.73754
▁있지	-8.73794
▁정신	-8.73911
럽	-8.74151
란	-8.74526
▁확인해	-8.74606
▁건지	-8.74734
거야	-8.74838
▁힘	-8.75106
▁전여친	-8.75239
▁좋지	-8.75367
▁받는	-8.75399
▁복	-8.75446
▁만나지	-8.75512
▁찾아보	-8.75534
다니	-8.75616
덧	-8.75619
▁분위기	-8.7562
▁부러워	-8.75621
▁알려줘	-8.75625
▁멋진	-8.7563
▁같습니다	-8.75657
이라면	-8.75746
▁지켜	-8.75796
겠지만	-8.75876
▁도전	-8.76059
▁절대	-8.76115
▁아닌지	-8.76604
▁일을	-8.76652
▁타고	-8.7685
▁세	-8.76921
▁알고	-8.76994
▁장	-8.77036
▁사랑할	-8.77086
▁돈이	-8.77215
▁가세요	-8.77317
▁않고	-8.77326
▁보여	-8.77425
▁되어	-8.7761
▁보지	-8.7778
▁거짓말	-8.78343
▁남자들	-8.78367
▁상관	-8.78452
▁자연스러	-8.78717
▁하기	-8.78832
▁생각만	-8.79095
▁파	-8.79305
▁살아	-8.79489
▁둘	-8.79652
림	-8.79797
▁남친이	-8.79859
▁죽을	-8.79877
▁드디어	-8.79967
▁뭔지	-8.79967
▁자존감	-8.79967
▁그리고	-8.80196
▁환승	-8.80255
▁봄	-8.80272
▁받아들이는	-8.80315
▁사랑해	-8.8036
갈	-8.80411
▁괜찮	-8.80421
보면	-8.80698
▁인정	-8.80968
집	-8.80969
나요	-8.81022
▁폰	-8.81103
줘	-8.81115
▁순간	-8.81208
▁좋은데	-8.81332
▁안되는	-8.8154
▁먹을	-8.81706
지는	-8.81741
▁마시	-8.81975
더라	-8.82024
▁밤	-8.82253
울	-8.82331
▁즐기	-8.82511
걸까	-8.82515
▁같	-8.82924
▁방법이	-8.83288
▁어	-8.83687
▁미련이	-8.83822
▁힘들었	-8.84007
▁드	-8.84076
▁친구들이	-8.84333
▁월급	-8.84473
▁뭔가	-8.84512
엔	-8.84512
▁자책하지	-8.84524
▁써	-8.84532
▁떨려	-8.84538
▁내려	-8.84547
▁프사	-8.84592
▁않는다면	-8.84614
▁인기	-8.84674
▁시기	-8.84681
▁문자	-8.8475
▁매	-8.84851
▁기다리는	-8.85029
▁그러면	-8.85031
▁분	-8.85093
▁있습니다	-8.85345
▁연락해도	-8.85508
▁확인	-8.85545
▁벌	-8.85864
▁뿐이	-8.85969
▁못해	-8.86039
사	-8.86189
중	-8.86235
▁사랑하면	-8.86801
▁개	-8.87373
▁잊는	-8.87431
▁관리	-8.8771
▁사랑하고	-8.87872
▁세상에	-8.88105
▁능력이	-8.88399
▁발	-8.88485
▁두려워	-8.88713
▁주변	-8.88786
▁되겠	-8.88831
▁이제는	-8.89031
▁정리하는	-8.89053
까봐	-8.89054
▁오는	-8.89167
▁탈	-8.8919
▁비밀	-8.89272
▁척	-8.89277
▁조언	-8.89278
▁무서워	-8.89284
▁썸녀	-8.8936
▁축하해요	-8.89621
을까	-8.89623
▁편지	-8.89643
선	-8.89671
▁조	-8.89705
▁욕	-8.89867
▁괜찮아	-8.89894
들이	-8.89911
▁만나자	-8.89967
▁시켜	-8.90124
두	-8.90173
▁물어봐	-8.90454
▁나을	-8.90564
▁말하는	-8.90657
▁이상형	-8.90683
▁괜찮을	-8.90772
▁봅니다	-8.90831
▁생겼	-8.90852
겠어	-8.90946
▁사귀	-8.90997
▁싶네	-8.91043
▁인	-8.9121
▁먹는	-8.91895
▁두달	-8.92101
▁성격이	-8.92154
▁습관	-8.92169
▁사람에	-8.92263
더라고요	-8.92274
▁보러	-8.92302
▁아프네	-8.92304
▁잊혀지	-8.92464
싶네요	-8.92476
▁주면	-8.92562
▁별로	-8.92886
해야지	-8.93093
▁우	-8.93228
▁싸	-8.93254
하다	-8.9359
▁볼까	-8.93685
▁지내	-8.93849
▁꾸준	-8.93924
▁경우	-8.94113
혀	-8.9422
▁좋아하	-8.94263
▁생기	-8.94274
▁최선	-8.94274
▁적당히	-8.94283
▁어려운	-8.94299
▁화장실	-8.94307
▁헤어졌어	-8.9431
▁있잖아	-8.94322
▁싶지	-8.94361
▁않았으면	-8.94464
▁쇼핑	-8.94509
▁상담	-8.94665
▁후회하지	-8.94845
▁잊을	-8.94913
▁상황이	-8.95037
▁해보는	-8.95418
▁로맨틱	-8.9548
▁모르겠네	-8.95525
▁잊지	-8.95727
▁나랑	-8.95794
▁이사	-8.95956
돼	-8.96314
▁전남친	-8.96337
▁신	-8.96351
단	-8.96396
▁되고	-8.96528
▁것보다	-8.96541
▁인연	-8.96613
같은	-8.97227
▁해서	-8.97364
▁가족	-8.97581
▁단	-8.97908
▁지났네	-8.97985
▁느낌이	-8.98065
▁잊고	-8.9857
셔	-8.98883
▁필요하겠	-8.98945
▁헷갈리	-8.99389
비	-8.99398
하	-8.99425
▁예쁜	-8.99449
▁여러	-8.99451
▁옆에	-8.99537
땐	-8.99537
▁질투	-8.99539
▁병원	-8.99539
▁오빠	-8.9954
▁원래	-8.9959
▁청소	-8.99653
▁이번	-8.99692
▁제대로	-8.9972
▁나가	-8.99949
▁저에게	-9.00074
▁행복한	-9.00273
▁받았어	-9.00377
▁있으니까	-9.00425
증	-9.00455
▁자신에게	-9.00479
▁그대로	-9.00573
▁없나	-9.00631
짝	-9.00974
살	-9.01028
되	-9.01287
▁종	-9.01385
▁건가	-9.01449
▁온	-9.01665
▁친구들	-9.01849
▁상	-9.01976
▁시작이	-9.02068
▁쉬어	-9.02078
▁강	-9.0216
▁감정이	-9.02275
▁사람과	-9.02307
▁후회할	-9.02429
▁안나	-9.0254
▁속이	-9.02631
동안	-9.02632
▁사람에게	-9.02638
▁성공	-9.02859
▁보고싶어	-9.02913
▁눈에	-9.02973
▁속	-9.03017
▁군대	-9.03368
다가	-9.03465
▁사랑한	-9.03543
▁놓아주	-9.03804
▁그녀가	-9.03907
▁끝을	-9.03936
▁유	-9.04289
난	-9.0434
했으면	-9.04902
▁식	-9.0497
▁스킨십	-9.04974
▁인사	-9.04984
▁받지	-9.05093
▁연예인	-9.05093
▁버텨	-9.05093
▁발표	-9.05094
▁담배	-9.05097
▁어플	-9.05104
▁감사	-9.05134
▁용기내	-9.05135
▁현상	-9.0519
년째	-9.05225
▁안들어	-9.05232
▁눈치	-9.05319
▁아이	-9.05437
▁톡	-9.05529
▁응원	-9.05647
▁시	-9.05656
리는	-9.05659
감	-9.0581
스	-9.05908
▁좋아하나	-9.05911
▁알아보	-9.05992
▁상황을	-9.06168
▁좋아할까	-9.06254
▁힘내	-9.06258
▁행복하	-9.0642
▁달라지는	-9.06508
▁노력하	-9.07246
▁연락하는	-9.07251
▁주말	-9.07268
▁달	-9.07332
▁극복	-9.07772
▁따	-9.07879
고생	-9.08043
째	-9.08154
라면	-9.08307
▁끝내	-9.08585
▁되기	-9.08664
마	-9.08769
▁확실	-9.0889
▁하다보	-9.0904
▁나오	-9.09511
▁버리	-9.09531
▁아닐	-9.09601
건가	-9.09691
야겠다	-9.09727
▁짝사랑하는	-9.10006
▁숨	-9.10054
었으면	-9.103
론	-9.10309
▁그러	-9.10324
▁안하고	-9.1051
겠다	-9.10541
▁살펴보	-9.10583
▁최고	-9.10594
으	-9.10633
▁커플	-9.10666
했	-9.10685
칠	-9.10719
▁만남이	-9.10793
다는	-9.10877
▁졸	-9.1091
▁기다릴	-9.10949
▁10	-9.10975
▁새벽	-9.10976
▁축하드려요	-9.10978
▁바빠	-9.10979
▁조심	-9.1099
▁의사	-9.11008
▁부담스럽	-9.11019
▁답장	-9.11036
왔어	-9.11062
▁등	-9.11071
▁한동안	-9.11121
▁영	-9.11223
▁웃	-9.11345
▁살펴	-9.11372
▁헤아리	-9.11428
아요	-9.11474
▁심해	-9.11485
▁무엇이	-9.115
▁드시	-9.11635
▁번호	-9.11703
▁여	-9.1176
었는데	-9.11802
▁이상한	-9.11855
▁원	-9.1217
▁생겼어	-9.12341
▁하셨	-9.12415
▁후련하	-9.12469
▁호감이	-9.12771
▁주고	-9.12924
▁중요하	-9.12936
후	-9.12953
게요	-9.1304
▁못하고	-9.13179
▁우울	-9.13252
▁혼자만	-9.13253
크	-9.13258
▁언젠가	-9.13603
낼	-9.13912
▁됐	-9.13948
▁되었	-9.14136
▁변하	-9.14152
▁생각하는	-9.14369
▁스타일	-9.14501
▁해결	-9.14614
▁떠	-9.14635
▁연락하면	-9.14954
▁얘기	-9.14982
▁자연스	-9.14986
시군요	-9.1524
▁다르겠지	-9.15383
▁시원	-9.15524
▁선물이	-9.1553
▁안됐	-9.15948
시길	-9.1604
▁먹어	-9.16041
▁고민하	-9.16059
▁썸이	-9.16086
▁부담	-9.16111
▁바보	-9.16155
▁짜증나	-9.16241
오	-9.16298
▁해줘	-9.16401
▁잡	-9.16462
해볼까	-9.16565
▁칭찬	-9.1668
▁장난	-9.16816
▁적극적	-9.16881
는건	-9.16961
▁본인	-9.16979
▁생일	-9.17013
▁간	-9.17102
▁위로해	-9.17165
▁어쩔	-9.17175
▁그럼	-9.17225
▁다이어트	-9.17225
▁면접	-9.17225
▁저녁	-9.17225
▁목소리	-9.17227
▁버스	-9.17232
▁안경	-9.17237
워	-9.17252
▁없애	-9.17257
▁집안일	-9.17258
▁상사	-9.17264
▁음식	-9.17266
▁떠난	-9.17267
▁휴식	-9.17277
▁괜찮아질	-9.17282
▁오랜만에	-9.1729
▁우연	-9.17325
▁취미	-9.17332
▁한잔	-9.17363
▁좋을텐데	-9.17431
▁지나갈	-9.17434
▁쓰는	-9.17527
▁갈까	-9.17535
▁이상해	-9.17554
▁이별에	-9.17567
▁집중	-9.17594
▁키	-9.17684
전	-9.17738
▁마련이	-9.17832
▁생각나네	-9.17839
▁여자친구와	-9.17907
▁따로	-9.17955
▁다르	-9.17965
▁학	-9.18006
▁이야기해	-9.18027
▁잊어버리	-9.18132
▁만나면	-9.18184
▁썸타는	-9.1823
우	-9.1829
▁휴가	-9.18423
▁사랑하는데	-9.18492
▁찍	-9.18539
▁초	-9.18649
▁소식이	-9.18903
식	-9.19014
분	-9.19133
▁그렇지	-9.19198
▁되는데	-9.19468
▁운명	-9.19468
▁존중	-9.19473
케	-9.19633
▁싫은	-9.19683
▁미워	-9.19717
▁주지	-9.1972
놓고	-9.19753
▁존재	-9.20298
▁부분	-9.20432
▁밖에	-9.20456
▁쉬는	-9.2051
▁신경쓰	-9.20519
가서	-9.20603
▁추억이	-9.20703
▁소	-9.20804
▁차분	-9.20913
▁그리워	-9.20982
▁선택일	-9.21062
▁솔직하	-9.21425
▁상처받	-9.21427
▁상황	-9.21975
▁커	-9.22109
▁재밌	-9.22189
됐어	-9.22451
▁인생이	-9.225
▁마셔	-9.2262
▁양	-9.22724
▁학원	-9.22847
▁발전	-9.22926
▁뒤	-9.23231
▁마련	-9.23248
▁살까	-9.23315
▁좋겠지	-9.23356
▁쓰레기	-9.23468
▁꿈이	-9.23554
료	-9.23581
▁지나	-9.23672
▁가능해	-9.23725
션	-9.23782
락	-9.2383
▁졸업	-9.23882
▁바뀔	-9.23892
▁앞으로	-9.23892
▁연락처	-9.23917
시다	-9.2392
▁소화	-9.23922
▁미래	-9.23943
▁곳에	-9.23981
▁가능성	-9.24031
▁만났는데	-9.24034
▁지쳤나	-9.24059
▁장거리	-9.24102
▁어쩌지	-9.24126
▁기운	-9.24186
▁만드	-9.24191
▁빼	-9.2421
▁빌려	-9.24211
▁공	-9.24317
▁다행	-9.24331
▁않으면	-9.24336
▁돌	-9.24431
▁일상	-9.24449
▁생각나는	-9.24482
▁없으면	-9.24508
▁동거	-9.24535
같아	-9.24553
▁만났	-9.24614
하니까	-9.24677
▁했던	-9.24736
▁이거	-9.24852
었길	-9.24983
▁여기	-9.2503
▁울어	-9.25077
▁뭐하지	-9.2516
▁배려	-9.25197
▁필요할	-9.2521
가슴이	-9.253
▁없는데	-9.25419
▁준	-9.25682
▁안와	-9.25871
었던	-9.25962
▁상처를	-9.26124
▁힘들겠	-9.26149
▁있고	-9.262
▁뜻	-9.26215
▁보기	-9.26215
▁없지	-9.26744
▁사랑한다	-9.26749
▁붙잡고	-9.26805
이라는	-9.27018
들을	-9.27036
▁당당하	-9.27078
밖에	-9.27112
▁되면	-9.2714
예	-9.272
르	-9.27483
겨	-9.27558
▁했으면	-9.27589
성	-9.27684
▁이해해	-9.27699
▁적어	-9.28126
돈	-9.28136
▁다음	-9.28177
▁않네	-9.28184
▁키우	-9.28278
▁말도	-9.28522
쳐	-9.28549
▁흘렀네	-9.28653
하거나	-9.28681
▁정리하	-9.28837
는거	-9.29065
▁괜찮아졌	-9.29432
가면	-9.29512
주가	-9.29679
▁과정	-9.29928
이란	-9.30006
▁준비하	-9.30022
▁궁금하네	-9.30192
▁살아야	-9.30343
▁연락하지	-9.30368
▁외로워	-9.30558
▁아는데	-9.30623
▁다행이	-9.30647
말	-9.30833
▁배우	-9.30872
▁자고	-9.30873
기만	-9.30986
▁자격	-9.31022
▁사귈	-9.31035
▁기념일	-9.31035
▁마스크	-9.31035
▁편한	-9.31035
▁느려	-9.31037
▁미친	-9.3104
▁대학	-9.31043
▁추워	-9.31048
▁걱정돼	-9.31074
▁치과	-9.3108
▁결과	-9.31084
▁벗어나	-9.31085
▁누군가	-9.31088
▁꿨어	-9.31134
▁실감	-9.31138
▁친구들과	-9.31153
▁쐬	-9.31161
▁편할	-9.31161
▁걱정하지	-9.31345
▁어떡하지	-9.31376
할때	-9.31391
▁무시하	-9.31394
▁필요하죠	-9.314
▁했습니다	-9.31411
▁걸어	-9.31558
▁됨	-9.31601
▁피해	-9.3164
▁크게	-9.31727
▁거울	-9.31787
▁독	-9.31845
▁있네	-9.3185
▁있겠지	-9.31868
▁타는데	-9.31882
▁상관없	-9.31891
▁달라	-9.32013
으니까	-9.32054
▁명	-9.32274
▁여자들	-9.32325
▁중인	-9.32431
▁왔는데	-9.3244
▁꿈에서	-9.32454
▁어디서	-9.32549
▁포기	-9.32588
▁도서관	-9.32642
▁피곤해	-9.32644
느라	-9.32941
▁사랑해서	-9.32943
▁못할	-9.32959
▁짐	-9.32975
▁사야	-9.33014
▁챙겨드	-9.33034
▁휴	-9.33288
보고	-9.33409
▁집에서	-9.33409
▁결혼식	-9.3345
▁재	-9.33479
▁않으니	-9.33596
록	-9.33607
▁거야	-9.33911
기는	-9.34171
보는	-9.34337
▁취업	-9.34381
▁질	-9.34402
▁맞춰	-9.34675
런	-9.34901
박	-9.34967
▁안하는	-9.35047
▁취	-9.35306
▁말씀해	-9.35362
▁같다	-9.3549
원	-9.35613
▁듣	-9.35646
종	-9.35653
피	-9.3572
▁반대	-9.35866
▁이어	-9.36246
말고	-9.36302
이면	-9.36314
▁용	-9.36366
었나봐	-9.36386
▁생각하지	-9.36653
하려고	-9.36761
▁울	-9.36921
▁그랬	-9.37236
▁들어가	-9.37763
▁심하	-9.38144
▁적응	-9.38594
▁거절	-9.38608
팅	-9.38679
▁계획	-9.38726
▁권태기	-9.38727
▁샀어	-9.38727
▁심호흡	-9.38727
▁안타깝	-9.38727
▁평소	-9.38727
▁혹시	-9.38727
▁시계	-9.38729
▁선톡	-9.38732
▁은근	-9.38733
▁분명	-9.38734
▁인형	-9.38737
▁온전	-9.38743
▁언제쯤	-9.38748
▁듣고	-9.38753
▁피부	-9.38758
▁통보	-9.38776
▁헤어졌는데	-9.38787
▁떨어졌어	-9.38789
▁관심사	-9.38815
창	-9.3885
▁미세먼지	-9.38864
▁희망	-9.38867
▁고통	-9.38872
▁미	-9.38874
▁친한	-9.38875
년이	-9.38927
▁먹을까	-9.38978
▁본	-9.39009
▁증거	-9.39078
▁그동안	-9.39081
한다면	-9.39113
▁귀엽	-9.39138
▁달라고	-9.39152
▁어울리	-9.39213
▁이건	-9.39282
▁할텐데	-9.39285
▁문득	-9.39341
▁순	-9.39407
렸어	-9.39439
▁보고싶다	-9.39466
하다가	-9.39547
▁회사에서	-9.396
▁사귀기	-9.39671
▁방	-9.39697
▁찾아올	-9.39843
▁왔다	-9.39884
▁저한테	-9.39947
▁행복하게	-9.40034
▁꾸	-9.40079
▁맞았	-9.40184
▁말할	-9.40206
▁자세	-9.40328
▁있지만	-9.40366
잡고	-9.4045
▁놀고	-9.40959
냐고	-9.41099
▁것들	-9.41161
라는	-9.41231
▁방학이	-9.41324
▁함	-9.41343
한데	-9.41534
이라고	-9.41539
▁그사람	-9.4158
▁충전	-9.41631
▁풀어	-9.41734
▁거니	-9.41835
▁자신만	-9.41857
구나	-9.41909
리기	-9.41926
▁감정에	-9.41927
▁분이	-9.42068
한다	-9.421
▁어서	-9.42158
동	-9.42196
약	-9.42343
▁생겼네	-9.42483
▁않게	-9.42525
별	-9.42643
▁스	-9.42676
▁행복할	-9.43078
▁라면	-9.43164
▁알려주	-9.43165
준	-9.43244
될	-9.43656
병	-9.43752
메	-9.43766
매	-9.4384
저	-9.43859
▁문	-9.43987
▁차별	-9.44002
새	-9.44148
좀	-9.44173
▁드네	-9.44436
▁걱정이	-9.44463
▁처음에	-9.44492
▁망	-9.44558
▁고백하는	-9.44562
께	-9.44833
▁크리스마스	-9.45009
▁텐데	-9.45207
▁모아	-9.45454
▁습관이	-9.45532
▁지쳐	-9.45549
당	-9.45676
▁한달이	-9.45803
▁그것	-9.45828
▁했나	-9.45886
▁부모님이	-9.46109
▁슬퍼	-9.4621
▁데려다	-9.46219
인듯	-9.46235
▁출근	-9.46318
고싶어	-9.46617
▁친구로	-9.46663
▁하네	-9.46671
▁절	-9.46718
▁결정이었을	-9.46827
▁멋있	-9.46993
▁완벽	-9.47003
▁무서운	-9.47025
▁멈추	-9.4706
▁짧은	-9.4706
▁드라마	-9.47061
▁평생	-9.47061
▁현재	-9.47061
곰	-9.47061
넌	-9.47061
링	-9.47061
콩	-9.47061
▁이겨낼	-9.47062
▁축구	-9.47064
▁스키	-9.47064
▁귀여워	-9.47065
▁진급	-9.47068
▁다녀오	-9.47071
▁불러	-9.47076
▁채워	-9.47092
▁지난	-9.4712
▁막말	-9.4712
▁잡아	-9.47137
▁올려	-9.47164
▁이성으로	-9.47175
▁시어머니	-9.4721
▁알면서도	-9.47215
▁어린	-9.47243
▁말투	-9.47249
차근	-9.47251
▁사소	-9.47251
▁끝난	-9.4728
▁과	-9.47313
▁오해	-9.47323
▁해야지	-9.47327
▁똑같은	-9.47341
▁인상	-9.474
▁조절	-9.4747
▁지금처럼	-9.4749
▁내리	-9.47527
▁좋지만	-9.47577
▁됐으면	-9.47604
▁최고죠	-9.4761
▁잊어	-9.47634
▁헤어지자고	-9.47635
▁나왔어	-9.47659
▁많은데	-9.47686
해야할지	-9.47687
▁깊은	-9.47768
▁소개	-9.47781
▁됩니다	-9.47812
▁떨	-9.47813
▁사랑한다면	-9.47822
▁주변에	-9.47936
▁놓	-9.48027
▁깊	-9.48209
▁비교하	-9.48344
▁사이에	-9.48358
▁과정이	-9.48426
▁내는	-9.48467
▁안전	-9.48543
▁사귀어	-9.4859
▁통해	-9.48602
▁해주는	-9.48611
▁이혼	-9.48728
▁부럽네	-9.48762
▁순간이	-9.48779
▁건강에	-9.48804
▁돌아가	-9.48847
▁그러게	-9.48957
▁있겠죠	-9.49039
▁크	-9.4929
▁헤어져야	-9.49437
▁몰랐	-9.49467
▁연	-9.49492
▁남기	-9.49594
▁지나가	-9.49603
연	-9.49793
▁했	-9.49973
▁재미있	-9.50006
줬어	-9.5008
▁성공하	-9.50248
▁않나	-9.50248
▁싸우면	-9.50325
재	-9.50449
거같아	-9.50472
▁힘들어서	-9.50474
▁자신에	-9.50675
▁비가	-9.50703
▁부족한	-9.50713
▁성격	-9.5076
어도	-9.50863
▁복잡하	-9.50942
▁사실	-9.51036
부	-9.51096
▁다녀	-9.51181
▁직접적	-9.51268
▁다리	-9.51497
주는	-9.51661
▁타이밍이	-9.5167
▁진	-9.51721
▁놓고	-9.51735
▁동안	-9.5179
▁두고	-9.51812
▁일주일	-9.5204
▁방학	-9.52409
하나	-9.52599
꺼	-9.52603
▁개인	-9.52608
▁떨리	-9.52688
작	-9.52715
끼	-9.52846
▁집착	-9.5288
양	-9.52939
▁지나갔	-9.52942
초	-9.53114
글	-9.53212
▁이해해주	-9.53236
▁기본	-9.53372
움	-9.53635
▁남을	-9.53755
▁마주치	-9.53899
▁놀러	-9.54155
▁자리	-9.54233
▁웃어	-9.54377
건지	-9.54435
▁돌려	-9.5444
▁어렵	-9.54481
▁전부	-9.5453
▁추천해	-9.54704
하던	-9.5478
▁짝사랑이	-9.54827
▁바뀌	-9.54949
▁회사에	-9.55065
▁사고	-9.55312
하셨	-9.55406
▁틀	-9.55618
▁시작해	-9.55628
▁참아	-9.55702
냈어	-9.55775
▁사과	-9.55779
▁역시	-9.55937
플	-9.55946
▁괴롭	-9.55966
▁원망	-9.55982
▁가능할	-9.5599
▁잘해줘	-9.5609
▁가벼	-9.56138
▁아름다	-9.5614
▁기분전환	-9.56151
▁설렘	-9.56151
▁쓰고	-9.56151
▁페북	-9.56151
▁하루하루	-9.56151
토	-9.56151
▁냉장고	-9.56152
▁맥주	-9.56152
▁이별통보	-9.56152
▁아빠	-9.56155
▁그리움	-9.56159
▁환승이별	-9.56161
▁각자	-9.56164
▁전환	-9.56165
▁멋져	-9.56167
▁골라	-9.5617
▁여전	-9.5617
▁진실	-9.56178
▁떨어져	-9.5618
▁계	-9.56191
▁달달	-9.56194
▁봄이	-9.56214
▁남겨	-9.56215
▁집들이	-9.56235
▁바라	-9.56243
▁인간	-9.56261
▁제발	-9.56267
▁과거	-9.56273
▁맞아	-9.56278
▁상상	-9.56285
▁근처	-9.56316
▁과일	-9.56335
▁전공	-9.56341
▁잠수	-9.56346
▁바꾸	-9.56378
▁두번	-9.56384
▁없겠지	-9.56407
▁외로	-9.56448
▁없겠네	-9.56465
▁예민한	-9.56468
▁찾기	-9.5648
▁걸릴	-9.56502
▁습관이에요	-9.5655
▁철	-9.56597
▁가자	-9.56629
▁새로	-9.56884
▁안되	-9.56923
▁쓴	-9.57048
조차	-9.57194
▁빠지	-9.57199
▁담	-9.572
▁살기	-9.57348
▁마다	-9.5737
▁믿음이	-9.57502
▁생활	-9.57637
▁중간	-9.5765
▁말까	-9.57687
▁청	-9.57741
▁남들	-9.57785
▁아니야	-9.57857
▁괜찮아지	-9.57868
▁더워	-9.57879
▁갔다	-9.57883
▁늘어	-9.58046
▁둘이	-9.58046
▁없어서	-9.58049
▁했나봐	-9.58331
▁쉬어가	-9.58345
▁짓	-9.58381
▁알면	-9.58418
어서	-9.58567
전에	-9.58767
▁배우는	-9.58869
드리	-9.58909
▁찾아가	-9.58912
달째	-9.5892
▁힘들겠어	-9.59017
▁터	-9.59025
▁야근	-9.59133
▁타다	-9.59199
▁됐네	-9.59243
▁유지하	-9.59284
▁보다	-9.59378
▁놀이	-9.59683
▁다니	-9.59752
▁무엇	-9.59805
▁나올	-9.6001
형	-9.60061
▁많을	-9.60271
▁선택이	-9.60367
▁헤어지는	-9.60389
▁잊으	-9.60471
▁괜찮다	-9.60534
▁반지	-9.60725
▁주말이	-9.60825
▁힘들었을	-9.60851
▁고치	-9.60873
▁오면	-9.61047
▁부분이	-9.61185
만으로	-9.61232
▁기다리면	-9.6153
하니	-9.61558
▁맘이	-9.6166
▁맘에	-9.61934
셨나봐	-9.6197
▁배워	-9.62247
줄까	-9.62361
▁챙겨주	-9.62372
거죠	-9.62384
▁선생님	-9.62469
▁당연	-9.62559
▁이름이	-9.62771
▁바다	-9.62771
▁마음으로	-9.62802
거리	-9.62843
김	-9.62911
▁표현해	-9.62968
▁공부하	-9.63007
두고	-9.63186
2	-9.63193
▁피하	-9.63202
혼자	-9.63255
▁불	-9.63299
다가도	-9.63728
어보세요	-9.63934
였어	-9.64162
▁이럴	-9.64276
년간	-9.64286
▁클럽	-9.64495
▁표현이	-9.64753
먹기	-9.64997
▁있으니	-9.6501
▁음악	-9.65048
▁마무리	-9.65083
▁긍정적	-9.65145
▁사귄	-9.6515
▁많지	-9.65193
▁결심	-9.65226
▁착각	-9.653
▁지워	-9.65318
법	-9.65319
▁중요	-9.65402
▁가능하	-9.65472
▁어장	-9.65478
▁답답해	-9.65754
▁무섭	-9.65813
레	-9.65868
▁뿌	-9.65914
▁생각에	-9.65961
▁답답한	-9.6597
▁답이	-9.66033
▁잊	-9.66034
▁이겨내	-9.66056
량	-9.6609
곤	-9.66114
했네	-9.66133
▁상대에	-9.66143
염	-9.66151
▁30	-9.66151
▁보험	-9.66151
▁공무원	-9.66151
▁벚꽃	-9.66151
▁스트레칭	-9.66151
▁싶습니다	-9.66151
▁아무렇지	-9.66151
▁오랫	-9.66151
▁청첩장	-9.66151
▁편해	-9.66151
▁휴대폰	-9.66151
껏	-9.66151
닉	-9.66151
▁빌어	-9.66152
▁아까워	-9.66152
▁앞머리	-9.66152
▁조급해	-9.66152
▁달콤	-9.66152
▁억지로	-9.66152
▁외롭	-9.66153
▁회식	-9.66154
▁목표	-9.66155
▁고마워	-9.66155
▁빠르	-9.66155
▁배고파	-9.66156
▁딸기	-9.66158
▁헤어질	-9.66183
▁향수	-9.66189
▁힘든가봅니다	-9.66206
▁필요하다면	-9.6621
▁맞는걸까	-9.66215
▁지칠	-9.66219
▁행운	-9.66243
▁좋아해주는	-9.66251
▁긴장	-9.66302
▁솔직한	-9.66302
▁부자	-9.66313
▁9	-9.66333
▁허리	-9.66337
▁태어난	-9.66357
▁이불	-9.66384
▁소비	-9.66386
▁곁에	-9.6641
사람	-9.6644
▁만나기로	-9.6644
▁먼지	-9.66447
▁느끼는	-9.66471
▁아프다	-9.6654
▁놔	-9.66627
▁입어	-9.66655
▁주말에	-9.66743
▁노래방	-9.6679
▁들었어	-9.66836
▁잊기	-9.66862
▁극복할	-9.66877
▁연애에	-9.66882
▁슬	-9.66964
▁꿀	-9.66971
▁당황	-9.66986
▁가사	-9.67032
▁인정받	-9.67043
▁좋았	-9.67055
▁글로	-9.67178
▁있다는	-9.67178
▁노력하는	-9.67282
▁신나	-9.67308
▁있었을	-9.67308
▁축하	-9.67399
▁않는데	-9.67578
▁맛난	-9.67664
▁나을까	-9.67706
▁생각했나봐	-9.67714
▁허	-9.67943
지지	-9.68099
▁능력	-9.68253
▁애들	-9.68336
거겠죠	-9.68399
▁생각하면	-9.68545
▁남사친이	-9.68584
▁옷이	-9.68726
하시	-9.68749
해줄	-9.68779
▁남자랑	-9.68797
▁헤어지면	-9.69048
▁기본이	-9.6934
▁나온	-9.69494
▁남았	-9.69565
▁나에게	-9.69641
▁가까	-9.69647
▁들어와	-9.69663
▁재미있어	-9.69733
▁사정	-9.69783
▁오네	-9.69883
▁선생님이	-9.69975
▁속에	-9.70316
갔어	-9.70439
속에서	-9.70448
도시	-9.70489
▁산책	-9.7058
▁놀러가	-9.70751
시간	-9.70827
▁간절	-9.70933
▁후에	-9.71141
▁계절이	-9.71152
▁바라는	-9.71362
▁이용	-9.71566
스러운	-9.71597
반	-9.72017
▁길어	-9.72041
바	-9.72307
▁해봐	-9.72402
▁혼자서	-9.72437
하고싶어	-9.72537
▁의지	-9.72603
▁기다리지	-9.72737
려면	-9.72744
▁없나봐	-9.72875
▁그럴까	-9.72884
▁동물	-9.72903
학	-9.73
▁몸에	-9.73066
하러	-9.73199
▁생긴	-9.73255
네여	-9.73406
▁신고하	-9.73428
▁무시	-9.73464
▁불행	-9.73652
짐	-9.73687
리를	-9.73702
터	-9.73723
숙	-9.73758
결	-9.73978
급	-9.74056
지면	-9.74118
▁디	-9.7417
산	-9.74197
배	-9.74228
남자	-9.74279
폰	-9.74318
따라	-9.74371
▁받으면	-9.74505
들에게	-9.74721
▁보니	-9.74827
녀	-9.75024
줬으면	-9.75027
▁최악	-9.75127
와서	-9.75318
▁나타	-9.75486
▁남편	-9.7577
▁재밌는	-9.75813
▁한다	-9.75971
치고	-9.76065
▁필요하	-9.76101
▁싫어하는	-9.76242
▁흔적	-9.76256
▁소원	-9.76275
▁실망	-9.76326
▁전해	-9.76373
▁썸인	-9.76537
▁냄새	-9.76555
▁자유	-9.76595
▁좋으면	-9.76778
▁향	-9.76871
▁올라	-9.76966
▁피곤한	-9.76969
▁맞을	-9.76976
▁공감	-9.76998
▁꼬	-9.77199
콜	-9.77252
▁공통	-9.77257
릿	-9.7726
▁빼빼로	-9.77263
▁생겨	-9.77263
▁콩깍지	-9.77263
▁염색	-9.77263
▁핑계	-9.77263
▁심경	-9.77263
▁외모	-9.77263
▁위로봇	-9.77264
▁허전하	-9.77264
▁에휴	-9.77264
▁업무	-9.77265
▁밝혀	-9.77265
▁회원	-9.77265
▁명절	-9.77266
▁깨끗	-9.77266
▁노후	-9.7727
▁차라리	-9.77271
▁간접적	-9.77271
▁일어났	-9.77275
▁붙여	-9.77275
▁대출	-9.77279
▁사업	-9.7728
▁버릴	-9.77283
▁이미	-9.77285
▁싸워	-9.77288
▁언니	-9.7729
▁맛집	-9.7731
봤는데	-9.77311
▁인내	-9.77312
▁기원	-9.77313
▁외로움	-9.7733
▁달라진	-9.77336
▁다음부터	-9.77336
▁나아질	-9.77348
▁지울	-9.7736
▁말해주	-9.77362
▁여름	-9.77375
▁경쟁	-9.77377
▁되었습니다	-9.77384
▁고쳐	-9.77451
▁프로포즈	-9.77467
▁힘듭니다	-9.77474
▁고맙다	-9.77474
▁찾아오	-9.77513
▁별거	-9.77526
▁줄여	-9.77527
▁거기까지인	-9.77537
▁헤어졌네	-9.77557
▁빠를	-9.77582
▁나쁘지	-9.77621
▁말해볼까	-9.77644
▁왔으면	-9.77664
▁멋지	-9.77675
▁이러지	-9.77676
▁그녀에게	-9.7772
▁도와줘	-9.77721
▁끝났어	-9.7779
▁받은	-9.77825
▁심리	-9.77964
▁죄	-9.77992
▁팔	-9.78008
테니	-9.78047
▁밀당	-9.7808
▁떨어지	-9.78097
은연	-9.78211
▁가능할까	-9.78262
고싶은데	-9.7827
▁매력	-9.78305
▁너에게	-9.78308
▁고백해도	-9.78323
▁사랑했나봐	-9.78345
▁결혼하면	-9.78346
▁왔네	-9.78377
▁나가기	-9.78414
지네	-9.78514
▁찍어	-9.78519
▁여자친구에게	-9.78537
▁가능한	-9.78554
▁어머	-9.7856
▁선배	-9.78573
이네	-9.78579
▁주기	-9.78667
▁표현하는	-9.78681
▁지치	-9.78708
▁그대	-9.78895
▁일하는	-9.78929
▁해야할까	-9.79043
▁있겠	-9.79126
▁경험이	-9.79239
▁되었나	-9.79257
▁때문이	-9.79503
해야겠지	-9.79911
▁상태	-9.79969
▁싸우	-9.80017
▁차리	-9.80024
▁마셔야	-9.80091
▁산	-9.80195
▁말하지	-9.80342
▁흔들리지	-9.80346
▁같지	-9.80447
▁사람이니까	-9.80578
▁잘못인	-9.80729
▁우울해	-9.80788
▁먹었	-9.80843
▁드려	-9.81143
▁어찌	-9.81353
▁여사친이	-9.81417
▁교회	-9.8143
▁늦은	-9.81456
▁가족이	-9.81487
리고	-9.81597
▁가는데	-9.81696
지내고	-9.81753
▁뻔	-9.81834
▁이해가	-9.81959
▁재미없	-9.82064
▁상대방에	-9.82135
▁있기	-9.82249
▁사람만	-9.82259
▁나보다	-9.82327
▁헤어지자	-9.82647
▁도와주	-9.82686
▁썸타	-9.82881
▁있다	-9.83292
▁궁금하	-9.83313
▁있었	-9.83401
▁미안해	-9.83468
▁어렵네	-9.83483
▁입을	-9.83546
로부터	-9.83658
▁으	-9.83799
체	-9.84025
▁못해요	-9.84135
▁후회하	-9.84224
▁온다	-9.84374
▁수다	-9.84441
이었으면	-9.84494
▁착	-9.84586
문	-9.84761
▁결혼할	-9.84793
▁아닌가	-9.84836
줄게	-9.8485
남	-9.84944
▁가리	-9.84968
▁버	-9.8515
야돼	-9.85159
년의	-9.85554
인가요	-9.85818
짓	-9.86003
▁이상형이	-9.86064
▁과식	-9.86101
위	-9.86105
▁슬프네	-9.86293
▁아니니	-9.86316
조	-9.86383
▁돌아오	-9.86385
애	-9.86452
▁흔들리	-9.86473
▁거의	-9.86511
친	-9.86564
번호	-9.86594
▁관리하	-9.86767
맛	-9.86782
코	-9.86801
티	-9.86836
또	-9.86873
려나	-9.86925
우면	-9.8696
▁보여주	-9.87026
▁살면	-9.8709
▁운명이	-9.87119
웠	-9.87133
▁성적	-9.87181
▁놓아	-9.87257
▁생각한	-9.87267
름	-9.87342
▁세상이	-9.87344
▁없을까	-9.87367
▁바꿔	-9.87393
▁하던	-9.8747
▁째	-9.87765
하나봐	-9.87771
▁먹으	-9.87828
▁궁금	-9.87836
▁샤워	-9.87862
▁실	-9.8788
▁믿음	-9.87903
▁태도	-9.87992
▁어떨까	-9.88
▁끝일	-9.88068
▁응원해	-9.88483
▁준비하는	-9.88507
▁않겠	-9.88621
▁걱정되겠	-9.88659
▁달라지	-9.88661
력	-9.88771
▁우선	-9.88778
▁따뜻하	-9.88862
▁어떡하	-9.89153
▁견뎌	-9.89415
▁오랜	-9.89445
▁판단	-9.89498
▁여기까지	-9.89518
▁버려	-9.89529
▁퇴근	-9.8954
▁신청	-9.89545
님	-9.89669
먹고	-9.89686
▁경	-9.89692
▁파혼	-9.89697
▁신혼	-9.8976
▁as	-9.89763
▁느낄	-9.89763
▁멀리	-9.89763
▁삼겹살	-9.89763
▁신뢰	-9.89763
▁에너지	-9.89763
▁웬수	-9.89763
▁의미부여	-9.89763
▁자괴감	-9.89763
▁충격	-9.89763
▁택배	-9.89763
뻑	-9.89763
왤	-9.89763
킁	-9.89763
푼	-9.89763
▁악몽	-9.89763
▁메모	-9.89763
▁단단	-9.89763
▁잇몸	-9.89763
▁떠오르	-9.89763
▁우선순위	-9.89764
▁인턴	-9.89764
▁나아졌	-9.89764
▁매너	-9.89766
▁통화	-9.89766
▁특별	-9.89767
▁애교	-9.89769
▁의욕	-9.89769
▁성별	-9.89771
▁정신차리	-9.89776
▁영화관	-9.89779
▁까먹었다	-9.8978
▁그립	-9.89782
▁지갑	-9.89782
▁실내	-9.89783
▁느껴져	-9.89783
▁보일러	-9.89788
▁여우	-9.89788
▁대단하	-9.89794
▁문신	-9.89796
▁시선	-9.89798
▁성향	-9.89798
▁신중	-9.89805
▁주식	-9.89805
▁천재	-9.89808
▁이직	-9.89813
▁기준	-9.89816
▁이기적인	-9.89827
더라구	-9.8983
▁받아들이기	-9.89833
▁불편해	-9.89843
▁비난	-9.89847
▁중국어	-9.89861
▁배우자	-9.89875
교통	-9.89892
▁의심	-9.89894
개월째	-9.89898
▁들여	-9.89926
▁좋았는데	-9.8994
꼬박	-9.89948
▁길러	-9.8997
▁안되네	-9.89978
▁알아차	-9.89991
▁운전	-9.89993
▁베터리	-9.89996
▁잤어	-9.89996
▁센스	-9.90001
▁가족들	-9.90017
▁생겼으면	-9.90032
▁움직이	-9.90061
▁흐르고	-9.90074
▁고장	-9.90075
▁맞을까	-9.90089
▁지진	-9.90099
▁성공할	-9.9015
▁썸인가	-9.90162
▁잊는다는	-9.90163
▁찾는	-9.90186
▁속상해	-9.90206
▁느낌이야	-9.90223
▁새해	-9.90244
▁누구에게	-9.90261
▁찌	-9.90326
거려	-9.90336
▁차가워	-9.90355
▁착한	-9.9036
▁쓸	-9.90361
▁놓치	-9.90394
▁자격증	-9.90422
▁보낼	-9.90494
▁위기	-9.90521
▁후회해	-9.90568
▁좋아하시	-9.90576
▁시키	-9.9059
졌으면	-9.90655
▁왔습니다	-9.90683
▁알기	-9.90697
▁알았어	-9.90698
▁느껴지	-9.90699
▁생각했는데	-9.90713
▁친해지는	-9.90725
▁널	-9.90813
▁치료	-9.90821
었습니다	-9.90832
▁기억이	-9.90847
▁먹어보세요	-9.90883
▁뭐할까	-9.90977
▁당했어	-9.91001
▁하는건	-9.91027
▁노는	-9.91069
겠습니다	-9.9107
▁잘못된	-9.9111
▁아니지만	-9.91251
을텐데	-9.91352
▁아기	-9.91364
▁봤어	-9.91386
▁위해서	-9.91405
▁설	-9.91581
▁참견	-9.91629
었	-9.91633
▁푸	-9.91648
▁해야겠다	-9.91654
▁심한	-9.91714
▁바라지	-9.918
하길	-9.91821
▁중입니다	-9.9188
▁거기까지였	-9.91891
▁참는	-9.9197
▁여자친구한테	-9.9197
▁싸웠	-9.91993
▁카드	-9.92074
▁옴	-9.92074
▁지내는	-9.92103
▁있음	-9.9242
니가	-9.92429
▁음	-9.92451
▁속도	-9.92484
▁슬프	-9.92497
▁삭제	-9.92526
▁흘렀	-9.92663
▁애매하	-9.92812
▁무시하는	-9.93013
▁결	-9.9305
아지	-9.93194
▁다양하	-9.93223
▁파도	-9.93223
해질	-9.93314
▁잡으	-9.93366
▁시원하	-9.9339
보여	-9.93486
▁의외	-9.93535
야하나	-9.93551
▁소문	-9.93558
▁하시	-9.93782
인가봅니다	-9.93964
▁부탁	-9.93988
▁답답할	-9.94005
▁물리적	-9.94047
▁꺼	-9.94084
타기	-9.94096
▁아침이	-9.94192
할거야	-9.94399
진다	-9.94956
▁신경쓰이	-9.94957
함이	-9.94959
▁생긴다	-9.95073
▁타이밍	-9.95171
▁올해	-9.95204
했다	-9.95212
▁끝났	-9.95225
▁있을지	-9.95318
▁큰일	-9.95328
▁성	-9.95435
▁성장	-9.95487
▁장소	-9.95601
▁끝에	-9.95727
▁취직	-9.95806
▁잘못이	-9.95863
추	-9.96337
▁좋아하는거	-9.96488
▁사람인가	-9.96638
▁행복해지	-9.96918
▁술이	-9.96958
▁뭐하는	-9.97204
척	-9.97268
▁집착하	-9.9728
▁돌아	-9.97457
▁하지마	-9.97462
▁받으	-9.97526
▁싱숭생숭	-9.97666
▁싸움	-9.9784
▁가만	-9.97859
▁취해	-9.97994
하겠습니다	-9.98092
▁전남친이	-9.98114
▁나눠	-9.98152
본	-9.98256
오네	-9.98263
▁가져보	-9.98441
▁다르겠	-9.98554
▁아프지	-9.98639
하는거	-9.98879
▁지는	-9.99211
화	-9.9922
▁받았	-9.99333
▁거면	-9.99355
았어	-9.99387
▁알아가	-9.99458
▁귀찮	-9.99472
드려	-9.99622
▁다가가는	-9.99737
▁미치겠	-9.9984
▁동생	-9.99919
친구	-10.0001
▁죽고	-10.0001
탈	-10.0004
▁놀러가고	-10.0004
수도	-10.0015
복	-10.0017
▁부담스러워하	-10.0035
▁많다	-10.0045
극	-10.0057
놈	-10.0059
▁비슷	-10.0073
더	-10.008
꾸	-10.0085
방법	-10.0098
허	-10.0101
▁헤어	-10.0105
밥	-10.011
잖아	-10.011
개	-10.0111
시나	-10.0129
되는	-10.0166
▁한거	-10.0231
▁자야	-10.0236
▁기간	-10.0238
▁취향	-10.0243
▁복잡한	-10.0245
▁받아들	-10.0265
▁도전해	-10.0266
▁읽어	-10.0269
▁받아보	-10.0286
▁야경	-10.0314
만한	-10.0315
▁필	-10.0328
▁쓰지	-10.0329
▁오늘이	-10.0334
▁안부	-10.0334
▁약이	-10.0336
▁까먹	-10.0337
되면	-10.0342
▁일에	-10.0348
해줘	-10.0363
▁일부	-10.0373
국	-10.0378
▁안되겠지	-10.0381
▁군	-10.0392
▁불편	-10.0394
쯤	-10.0394
이라니	-10.0398
▁잊혀질	-10.0398
▁맞추	-10.04
▁택시	-10.0403
즈	-10.0405
▁결혼적령기	-10.0405
▁노트북	-10.0405
▁동호회	-10.0405
▁마침표	-10.0405
▁무기력	-10.0405
▁변한	-10.0405
▁봉사활동	-10.0405
▁비싼	-10.0405
▁셀카	-10.0405
▁쓰면	-10.0405
▁아름답	-10.0405
▁유효기간	-10.0405
▁자존심	-10.0405
▁좋네	-10.0405
▁좋으시	-10.0405
▁짧지	-10.0405
▁최근	-10.0405
▁출퇴근	-10.0405
▁트라우마	-10.0405
▁후유증이	-10.0405
▁흥미	-10.0405
꽤	-10.0405
쩍	-10.0405
흥	-10.0405
▁단둘이	-10.0405
▁여드름	-10.0405
▁새출발	-10.0405
▁표정	-10.0405
▁즐겁	-10.0405
▁증오	-10.0405
▁두려움	-10.0405
▁강렬	-10.0405
▁고쳐쓰는	-10.0405
▁사회생활	-10.0405
▁데려가	-10.0405
▁신혼여행	-10.0405
▁괴로워	-10.0405
▁제주도	-10.0405
▁기울여	-10.0405
▁어필해	-10.0405
▁버티	-10.0406
▁흘려	-10.0406
▁취미생활	-10.0406
▁발목	-10.0406
▁축복	-10.0406
▁필요했을	-10.0406
▁제자리	-10.0406
▁아름다워	-10.0407
▁두셨	-10.0407
▁15	-10.0408
▁깨달음	-10.0409
나게	-10.041
▁답답하네	-10.041
일이	-10.041
▁세워	-10.0411
줬는데	-10.0411
▁공허함이	-10.0413
▁정리될	-10.0413
▁깨닫	-10.0415
개월이	-10.0419
▁어려	-10.042
▁사라질	-10.0421
▁집착해	-10.0421
▁부드	-10.0422
▁불안해	-10.0425
▁건조	-10.0426
▁욕심	-10.043
▁나왔	-10.0431
▁베	-10.0432
▁정류장	-10.0432
▁예감	-10.0433
▁빠져	-10.0434
▁놀랐	-10.0438
▁포장	-10.0444
▁점심	-10.0445
▁일들이	-10.0447
▁끝났네	-10.045
▁변명	-10.045
▁포	-10.0452
▁그저	-10.0454
▁심장	-10.0455
▁호의	-10.0455
▁언제까지	-10.0457
▁먹었어	-10.0458
▁고르	-10.0462
▁쓰이	-10.0465
▁좋아했는데	-10.0465
▁뒤에서	-10.0465
▁중요한데	-10.0467
▁행복해질	-10.0469
▁호	-10.0474
▁가치	-10.0474
▁잘해	-10.0475
▁영원한	-10.0476
▁웃으면	-10.0479
▁짠	-10.0479
▁땅	-10.0479
▁패턴	-10.0479
일차	-10.0481
▁코스	-10.0484
▁언제든	-10.0486
▁좋아하지	-10.0488
▁안되는데	-10.0492
뿐	-10.0494
▁하루에도	-10.0502
▁이어나가는	-10.0506
▁놈	-10.0506
▁지나간	-10.0507
▁심어	-10.0509
▁포기하는	-10.051
▁결정할	-10.051
▁걸려	-10.0513
▁생각날	-10.0522
▁나아지	-10.0546
왔는데	-10.0553
▁여자와	-10.0567
▁늦어	-10.0568
▁상의	-10.0568
▁받아야	-10.0571
라니	-10.0571
▁애기	-10.0574
▁남자한테	-10.0577
▁별로라	-10.0577
▁지금보다	-10.0583
▁조건	-10.059
이별한	-10.0593
▁같아서	-10.0604
▁외	-10.0604
▁걸음	-10.0615
▁될거예요	-10.0624
▁당연하	-10.0627
▁생각하	-10.0632
▁기간이	-10.0644
았는데	-10.0657
▁좋아한다	-10.0658
▁잊어야	-10.0659
▁그러는	-10.0662
▁나한테만	-10.0662
▁봐서	-10.0672
▁생각할까	-10.0675
▁되겠지	-10.0676
▁충전하	-10.0684
▁밤에	-10.0707
마시면	-10.0714
▁말라고	-10.0742
▁정의	-10.0748
▁있었어	-10.0756
▁말해줘	-10.0762
▁지켜보	-10.0764
▁삭제하는	-10.0772
되는데	-10.0787
하려는	-10.0789
▁다가	-10.0796
▁변하는	-10.0802
하며	-10.0833
▁확실하	-10.0839
였	-10.0839
▁그럴만	-10.0863
▁소식	-10.0879
▁지났	-10.0891
▁나가야	-10.0894
간다	-10.0896
▁덜할	-10.09
▁헬스장에	-10.0905
▁연애하고	-10.0932
▁맞나	-10.0937
되겠	-10.0951
▁싶다고	-10.0962
▁줄까	-10.0966
▁돌리	-10.0971
▁당신만	-10.0983
▁인정하	-10.0987
▁잡았	-10.1004
▁힘드신가	-10.1012
▁사랑해주	-10.1012
형이	-10.1035
▁겨	-10.1081
▁하려고	-10.1091
능	-10.1093
▁살아가	-10.1093
해보고	-10.11
▁당황했	-10.11
▁얼굴이	-10.11
▁차분하	-10.111
하자	-10.1117
▁피곤	-10.1123
각	-10.1131
뿐이	-10.1141
▁미련없	-10.1141
씨	-10.1161
▁전화하는	-10.1181
▁보게	-10.1206
▁화가	-10.1224
▁여행가	-10.1231
받고	-10.1239
▁시작하	-10.1243
오면	-10.1244
인걸까	-10.1251
▁서운하	-10.1254
▁노력해	-10.1275
봅	-10.1294
▁깔끔	-10.1328
▁해드	-10.1328
▁스타일이	-10.1331
▁용서	-10.1333
▁사람인데	-10.1344
▁남는	-10.1344
버렸어	-10.1355
▁치	-10.1361
치기	-10.1365
▁절약	-10.1378
▁진심이	-10.1396
▁이별하고	-10.1403
▁붙잡	-10.1422
▁잘해주는	-10.143
▁잠수이별	-10.1435
불	-10.1443
버려	-10.1458
양해	-10.1458
▁전화가	-10.1459
▁있어야	-10.1483
▁웃는	-10.1491
▁참지	-10.1493
▁나아	-10.1512
▁끝인	-10.1517
▁먹기	-10.1517
▁때로	-10.1518
▁여자들이	-10.1529
▁축하해주	-10.1542
안	-10.1569
아주	-10.1572
▁헤어져	-10.1583
▁공부해야	-10.1589
▁나온다	-10.1624
▁이성	-10.1625
▁하고싶	-10.1627
▁바르	-10.1633
▁만나보	-10.1671
언	-10.168
궁	-10.1683
▁살지	-10.1686
▁애매	-10.1687
▁며	-10.169
▁마음만	-10.1691
▁보내주	-10.171
역	-10.1716
빛	-10.1716
행	-10.1722
하긴	-10.1723
르고	-10.1729
▁단계	-10.1738
합	-10.1739
강	-10.1739
판	-10.1743
명	-10.1744
매일	-10.1745
외	-10.1745
하겠네	-10.1747
▁나네	-10.1747
생활	-10.1747
▁자는	-10.175
청	-10.1758
독	-10.1759
▁보고싶	-10.1759
학기	-10.1763
▁못하면	-10.1764
옴	-10.1765
죄	-10.1768
▁사람들에	-10.1774
취	-10.1775
둘	-10.1777
4	-10.178
몸	-10.1781
바이	-10.1798
▁결혼하	-10.18
▁초대	-10.1802
▁받아들여	-10.1806
▁늘	-10.1806
▁가치관	-10.183
▁알려	-10.1831
건데	-10.1836
▁갔	-10.184
우니까	-10.1843
▁술먹	-10.1844
▁떠보	-10.1857
였나	-10.1867
▁만족	-10.1871
▁몇일	-10.1881
▁거지	-10.1897
▁이뤄	-10.1903
▁연락하	-10.1904
이별	-10.1911
▁변해	-10.1914
▁나눠보	-10.1922
▁이러	-10.1922
▁흘러	-10.1935
▁바지	-10.1943
▁공시	-10.1945
▁모르겠	-10.1946
▁못했	-10.1963
▁어쩌	-10.1963
▁된다	-10.1972
값	-10.1972
야할	-10.1975
▁견디	-10.1989
▁영원	-10.1989
▁화내	-10.199
카드	-10.1999
침이	-10.2004
▁탔	-10.2005
▁물어보면	-10.2012
▁멋	-10.2019
▁노	-10.2024
드려요	-10.2031
찰	-10.2031
▁짜증	-10.2045
▁내려놓	-10.2046
▁그만하고	-10.2056
▁부담스러워	-10.206
▁아니고	-10.2068
정규직	-10.2068
▁쳐다	-10.207
스러워	-10.207
▁메뉴	-10.2071
센터	-10.2071
▁높아	-10.2071
▁믿으	-10.2071
▁부딪혔	-10.2071
▁챙기	-10.2071
▁합격	-10.2071
▁20	-10.2071
▁가늠	-10.2071
▁관련	-10.2071
▁기프트콘	-10.2071
▁끊는	-10.2071
▁낚시	-10.2071
▁낭비	-10.2071
▁높겠	-10.2071
▁눈썹	-10.2071
▁도대체	-10.2071
▁득템	-10.2071
▁맞지	-10.2071
▁무릎	-10.2071
▁받기	-10.2071
▁베풀	-10.2071
▁보이스피싱	-10.2071
▁셀프웨딩	-10.2071
▁스타트업	-10.2071
▁슬픔	-10.2071
▁쌩얼	-10.2071
▁아이스크림	-10.2071
▁애정표현	-10.2071
▁애틋	-10.2071
▁어둠	-10.2071
▁어젯밤	-10.2071
▁이벤트	-10.2071
▁이뻐	-10.2071
▁잠재력	-10.2071
▁좋고	-10.2071
▁지겨워	-10.2071
▁첫인상	-10.2071
▁체육대회	-10.2071
▁탈퇴	-10.2071
▁평온	-10.2071
▁현금영수증	-10.2071
▁형편	-10.2071
▁혼술	-10.2071
▁화이트데이	-10.2071
강습	-10.2071
바퀴	-10.2071
벅	-10.2071
욱	-10.2071
팸	-10.2071
▁스터디	-10.2072
▁짜장면	-10.2072
▁찜질방	-10.2072
▁월요일	-10.2072
▁로봇	-10.2072
▁추석	-10.2072
▁어떠	-10.2072
▁누굴	-10.2072
▁생리통	-10.2072
▁치유	-10.2072
▁소개시켜	-10.2072
▁의견	-10.2072
▁스테	-10.2072
▁반가워	-10.2072
▁마주쳐	-10.2072
▁무거워	-10.2072
▁실례	-10.2072
▁소유	-10.2072
▁안경테	-10.2072
▁단호	-10.2072
▁분노	-10.2072
▁교양	-10.2072
▁일어날	-10.2072
▁외국인	-10.2072
▁분담	-10.2073
▁인공	-10.2073
▁조카	-10.2073
▁잃어버	-10.2073
▁택시비	-10.2073
▁익숙해질	-10.2073
▁어려울	-10.2073
▁커피향	-10.2073
▁걱정된다	-10.2074
▁모자라	-10.2074
▁차갑	-10.2074
테리	-10.2074
▁추운	-10.2074
▁행복해보여	-10.2074
▁이기적이	-10.2074
▁시간표	-10.2075
▁빠른	-10.2075
▁이쁜	-10.2075
▁자취	-10.2076
▁노려	-10.2076
▁대체	-10.2076
▁더러워	-10.2076
▁나누	-10.2076
▁소심해	-10.2076
했나	-10.2076
▁동성	-10.2076
▁드라이브	-10.2076
▁필름	-10.2077
▁부부	-10.2077
▁뭐하냐	-10.2077
▁추천해줘	-10.2077
▁넘었네	-10.2078
▁동감	-10.2078
▁전세	-10.2079
▁놀아줘	-10.2079
▁달라져	-10.2079
▁조용	-10.2079
▁아님	-10.2079
▁줄어들	-10.2079
▁전역	-10.208
▁이별했습니다	-10.208
▁대우	-10.208
▁방식	-10.208
▁소주	-10.208
▁참았어	-10.2081
▁성공적	-10.2082
지긋	-10.2082
▁꺼내	-10.2083
▁주제	-10.2084
▁책임	-10.2084
▁같음	-10.2085
▁대답	-10.2085
▁교	-10.2086
▁끝났으면	-10.2086
▁정답	-10.2086
▁한강	-10.2086
▁장점	-10.2088
▁낫겠지	-10.2089
▁쓸데없	-10.209
▁일요일	-10.209
▁불공평해	-10.2091
▁보답	-10.2092
▁이루어	-10.2092
▁궁금할	-10.2095
맥이	-10.2096
▁수영	-10.2097
▁끝날	-10.2099
▁먹었는데	-10.21
▁태어나	-10.21
▁퇴근길	-10.2101
▁낳	-10.2104
▁찼	-10.2104
▁기울이	-10.2104
▁벽	-10.2104
▁연휴	-10.2105
▁성형	-10.2105
▁금연	-10.2106
▁차례	-10.2107
▁구멍이	-10.2109
▁익숙해지지	-10.211
▁해주고	-10.2111
▁어색해	-10.2113
▁행복할까	-10.2117
▁바디	-10.2117
▁별로야	-10.212
▁고기	-10.2122
▁갔는데	-10.2123
▁계기	-10.2124
짐에	-10.2125
▁않겠지	-10.2128
▁기술이	-10.213
▁순간이었	-10.2131
▁아닌거	-10.2132
▁생일이	-10.2136
지기	-10.2136
▁다가오	-10.2137
▁티내	-10.2137
▁달리	-10.2141
▁멀어지	-10.2147
▁사귀면	-10.2149
▁무리	-10.2156
▁안되나	-10.2157
▁받아들이	-10.2157
▁업	-10.2161
▁아플	-10.2162
▁급	-10.2166
▁사수	-10.2172
▁밀어	-10.2174
▁안녕하세요	-10.2177
▁야경이	-10.2179
▁끌	-10.218
▁크기	-10.2197
위치	-10.2203
▁가려	-10.2205
▁남아	-10.221
▁해주면	-10.221
▁당신에게	-10.2226
▁두근거리겠	-10.2228
▁나갈	-10.2232
▁간사하	-10.2236
▁지하철에	-10.2237
시간이	-10.2239
▁있대	-10.2239
▁남았나봐	-10.2239
▁힘든데	-10.2241
▁일년	-10.2241
▁연락해보는	-10.2244
▁마음이라	-10.2249
▁위험해	-10.2252
▁기다렸	-10.2253
▁예민해	-10.2256
▁준비중	-10.2261
▁맛있어요	-10.2265
▁전기	-10.2267
▁듣기	-10.2274
▁클	-10.2275
질러	-10.2285
▁걱정되	-10.2286
▁애정	-10.2289
▁들으면	-10.2304
▁잘해야	-10.2305
▁때려	-10.2306
▁돌아올	-10.2308
야할까	-10.2312
▁분들	-10.2325
리가	-10.2328
▁올까	-10.2329
▁자신과	-10.233
▁육아	-10.2332
▁그만두	-10.2334
▁사랑하기	-10.2336
▁면도	-10.2338
▁가치관이	-10.234
▁요리	-10.2342
▁충전기	-10.2348
▁사과하	-10.2353
▁있는거	-10.2356
▁속은	-10.2358
▁망가	-10.2364
▁혼자인	-10.2367
▁빠졌	-10.237
▁무시해	-10.2371
잠을	-10.2373
▁화나	-10.2382
▁이해할	-10.2384
해주지	-10.2391
▁바꿔야	-10.2405
▁그때	-10.2406
▁먹지	-10.241
▁알았	-10.242
지고	-10.2435
▁고백했	-10.2436
▁하루에	-10.2442
▁고고	-10.2445
▁당연한	-10.2454
▁재밌다	-10.2461
▁칭찬해주	-10.2471
▁연애하는	-10.2478
망했어	-10.249
▁했다	-10.2492
▁반장	-10.2501
이래	-10.251
제가	-10.2515
였을	-10.2519
▁놀까	-10.2547
▁썸일	-10.2552
▁친	-10.2556
▁심	-10.2563
▁인스타	-10.2568
▁시간이겠	-10.2578
▁몰랐어	-10.2582
▁보이는	-10.2594
▁반응	-10.2603
▁아닌가봐	-10.2603
▁사내	-10.262
줘야	-10.2633
▁좋아한다는	-10.2644
▁처음이	-10.2656
▁왔나	-10.267
▁하게	-10.2676
▁느껴	-10.2682
보며	-10.2699
▁이름	-10.2707
봐야지	-10.2712
▁했어요	-10.272
▁간단하	-10.272
▁물어보고	-10.2728
▁점이	-10.2733
▁있으신가	-10.2734
는구나	-10.2737
려구	-10.2739
▁지르	-10.2749
▁결정이	-10.2749
▁사랑하는지	-10.275
▁드릴	-10.2756
▁바꿀까	-10.2758
▁정확하	-10.2767
▁봐주	-10.279
▁위험	-10.2804
▁살다	-10.2807
▁정신없	-10.2812
월	-10.2821
▁동생이	-10.2862
나면	-10.2866
난다	-10.2875
▁말아야	-10.289
▁풀렸	-10.2896
▁즐기면	-10.2907
▁사랑한다는	-10.2912
▁이기	-10.2915
▁사람인	-10.2916
느냐	-10.2919
▁들리	-10.2928
▁사랑받고	-10.295
▁첫사랑이	-10.2963
받았어	-10.2976
▁그런가	-10.2977
▁힘드시겠	-10.2978
▁지우	-10.2981
▁힘드	-10.2995
지마	-10.3001
▁피곤하	-10.3002
▁투자	-10.3003
▁생각해보세	-10.3005
▁차였	-10.301
▁낼	-10.3018
▁울적	-10.3057
▁여행이	-10.3059
해졌	-10.3063
라서	-10.3067
▁결정이었	-10.3071
▁참다	-10.3081
▁하니까	-10.3088
▁경험	-10.3088
▁덜어	-10.3088
는지	-10.3106
▁중독	-10.3113
▁손해	-10.3114
▁시작해보	-10.3137
분이	-10.3139
▁사귀자	-10.318
▁돌아가고	-10.3191
▁간절하	-10.3199
▁존중해	-10.3227
먹	-10.3247
▁마음인	-10.3261
곳	-10.3272
▁헤어졌	-10.3279
▁비슷한	-10.3287
▁놓으	-10.3296
▁하다	-10.3297
▁그리운	-10.3297
▁바꿀	-10.3298
▁반복	-10.33
▁트	-10.3309
봤	-10.331
▁남은	-10.3315
▁아껴	-10.3341
▁통	-10.3363
▁사나	-10.3378
▁말해봐	-10.3384
타	-10.3386
▁중고	-10.3405
이예요	-10.343
리지	-10.3432
▁왔나봐	-10.3436
▁맛있을	-10.3438
▁괜찮지	-10.3441
셨	-10.3442
둔	-10.3454
▁행동이	-10.3463
관	-10.3465
▁마음에서	-10.347
▁사람일	-10.3481
▁막히	-10.3484
버리	-10.3505
밖	-10.3543
▁끝인가	-10.3547
▁이상하	-10.3549
세	-10.3551
▁표현해보	-10.3554
▁사랑하	-10.3555
▁생겼을	-10.3564
▁한다는	-10.3575
▁아니라는	-10.3592
올	-10.3598
▁이해하	-10.3601
▁좋을거	-10.3632
해주는	-10.3638
키	-10.3641
채	-10.366
▁함께할	-10.3668
백	-10.3671
출	-10.3678
▁거기까지	-10.3681
왕	-10.3685
그	-10.3707
머	-10.3709
있어	-10.3725
▁술마시	-10.3725
카	-10.3738
무	-10.3746
찬	-10.375
들어	-10.3753
연애	-10.3754
났어	-10.3759
▁침대	-10.3762
▁연애하면	-10.3763
푸	-10.3765
설	-10.3765
있음	-10.3766
▁마셨	-10.3773
목	-10.3777
관계	-10.3778
깨	-10.3778
▁매력이	-10.3778
모습	-10.378
3	-10.3782
▁무너	-10.3798
있지	-10.3816
▁맘같	-10.3819
▁결혼해야	-10.383
▁걸리겠	-10.3833
같네	-10.3838
▁꿈같	-10.384
▁않았을	-10.3854
▁유학	-10.3864
▁공부할	-10.388
▁선택할	-10.3895
셔야	-10.3904
▁헤아	-10.3908
하지만	-10.3912
▁들으	-10.3914
셨어	-10.3917
▁보일	-10.3926
▁해야겠	-10.3929
으니	-10.3942
▁어울	-10.3945
▁때문일	-10.396
▁심심	-10.3961
렸	-10.3972
으려면	-10.3979
▁효	-10.3985
▁만나러	-10.3992
▁똑같	-10.3996
▁작아	-10.4003
한번	-10.4003
▁되었네	-10.4004
▁받아들여야	-10.4005
▁그분에	-10.401
라는게	-10.4013
▁이루	-10.4026
▁점심시간	-10.4038
▁보냈	-10.4044
석	-10.4045
랬	-10.4047
▁태	-10.4055
▁먹어야	-10.4059
례	-10.4059
▁발렌타인데이	-10.4059
탕	-10.4062
쟁이	-10.4062
▁어떨	-10.4062
▁쓸데	-10.4062
▁다닐	-10.4064
▁부담스러운	-10.4065
▁드라이	-10.4066
▁회복	-10.4066
념	-10.4069
뽑기	-10.407
릅	-10.4071
▁흑역사	-10.4071
딩	-10.4071
▁가볍	-10.4071
▁긁었어	-10.4071
▁금수저	-10.4071
▁끄는	-10.4071
▁놀이동산	-10.4071
▁당분간	-10.4071
▁뒷담화	-10.4071
▁랜선	-10.4071
▁리폼	-10.4071
▁머리카락	-10.4071
▁모쏠	-10.4071
▁믿는	-10.4071
▁서툴러	-10.4071
▁설렜	-10.4071
▁섬유유연제	-10.4071
▁셀프	-10.4071
▁쌓인	-10.4071
▁아팠	-10.4071
▁염탐하	-10.4071
▁유부남	-10.4071
▁읽씹	-10.4071
▁좋대	-10.4071
▁좋더라	-10.4071
▁좋으련만	-10.4071
▁지저분해	-10.4071
▁첫눈	-10.4071
▁축의금	-10.4071
▁층간소음	-10.4071
▁컴퓨터	-10.4071
▁특징	-10.4071
▁한켠	-10.4071
▁혼내	-10.4071
댈	-10.4071
쎄	-10.4071
쫌	-10.4071
찐	-10.4071
츠	-10.4071
툰	-10.4071
힐	-10.4071
▁갚아	-10.4072
▁무관심	-10.4072
▁배터리	-10.4072
▁편의점	-10.4072
▁프라이버시	-10.4072
▁허전한	-10.4072
▁몸무게	-10.4072
▁비하하지	-10.4072
▁낭만적	-10.4072
▁무의식	-10.4072
▁못참고	-10.4072
▁호칭	-10.4072
▁마음정리	-10.4072
▁갑작스럽	-10.4072
▁농담	-10.4072
▁컴터	-10.4072
▁신경써	-10.4072
▁늦잠	-10.4072
▁시골	-10.4072
▁원인이	-10.4072
▁맞춤법	-10.4072
▁격려	-10.4072
▁와닿	-10.4072
▁명품	-10.4072
▁그리울	-10.4072
▁감싸	-10.4072
▁구속	-10.4072
▁끓여	-10.4072
▁화장품	-10.4073
▁망했다	-10.4073
▁찾아온	-10.4073
▁기다림	-10.4073
▁지루	-10.4073
▁개념	-10.4073
▁유행	-10.4073
▁배울	-10.4073
▁연락두절	-10.4073
▁방문	-10.4073
▁서류에서	-10.4073
▁이틀	-10.4074
▁불편하겠	-10.4074
▁등산	-10.4074
▁개강	-10.4074
▁은행	-10.4074
▁짜증날	-10.4074
▁무너져	-10.4075
▁똑같아	-10.4075
▁반갑	-10.4075
▁졸업식	-10.4075
▁웃겨	-10.4075
▁간식	-10.4076
▁한계	-10.4077
▁먹어야겠다	-10.4077
▁변덕스럽	-10.4077
▁고마운	-10.4078
▁크시겠	-10.4078
▁빨래	-10.4078
▁통장	-10.4078
▁미치겠습니다	-10.4078
▁마실까	-10.4078
▁흘리	-10.4079
▁서운해	-10.4079
▁미안	-10.408
▁말해보는	-10.408
▁신경쓰여	-10.408
▁치워	-10.4081
▁사탕	-10.4081
스럽	-10.4081
▁적응해야	-10.4081
▁어리게	-10.4082
▁후배	-10.4082
년연애	-10.4082
▁귀여	-10.4083
주째	-10.4083
▁다정한	-10.4083
▁양말	-10.4083
▁나가볼까	-10.4083
▁군인	-10.4083
▁활	-10.4084
▁사생활	-10.4084
▁좋아해줬으면	-10.4086
▁지낼	-10.4086
▁한숨만	-10.4086
▁질질	-10.4087
▁친해질	-10.4088
▁끝낼	-10.4088
▁정신적	-10.4088
▁마실	-10.4089
▁갑작스러	-10.409
▁미치겠어	-10.409
▁망상	-10.409
플라	-10.409
▁수업	-10.409
▁없으니까	-10.4092
▁한국	-10.4092
▁아마	-10.4093
▁좋았으면	-10.4093
▁죽겠	-10.4095
▁남이	-10.4097
▁아무말	-10.4098
▁어른	-10.4099
활용	-10.41
냐구	-10.4103
인거	-10.4103
▁팔아	-10.4103
▁포근	-10.4104
▁목적	-10.4105
▁점심시간에	-10.4106
▁의미일까	-10.4107
▁재밌어	-10.4108
▁짜	-10.4108
▁어색한	-10.411
드립니다	-10.411
▁다짐	-10.4111
▁밟	-10.4112
▁다툼	-10.4112
▁주택	-10.4112
▁덕	-10.4112
▁프로필	-10.4112
▁잊으려고	-10.4112
▁죽어	-10.4112
▁켜	-10.4112
▁설명	-10.4113
▁접는	-10.4113
▁축제	-10.4113
력이	-10.4114
▁바늘	-10.4116
▁들려	-10.4116
▁키울	-10.4117
▁먼	-10.4118
▁해야돼	-10.4123
▁달려있	-10.4126
▁확인하는	-10.4127
▁사냐	-10.4128
▁마주쳤	-10.4129
▁견뎌내	-10.413
▁헤어지기	-10.4131
▁보고싶네	-10.4132
▁안좋은	-10.4132
▁보냈어	-10.4133
▁아파트	-10.4133
버림	-10.4135
▁가스	-10.4137
▁멀었	-10.4137
▁사겨도	-10.4137
할게	-10.414
▁들까	-10.4143
셨나	-10.4145
▁오려나	-10.4146
▁똑똑해	-10.4149
▁치매	-10.415
▁못자	-10.4152
▁시작하기	-10.4152
▁많은걸	-10.4154
▁걸린	-10.4154
시면	-10.4155
▁있었는데	-10.4155
▁지우고	-10.4155
▁보자고	-10.4159
▁배고프	-10.416
▁이별이란	-10.416
▁견디고	-10.4162
놓지	-10.4163
▁연락했는데	-10.417
▁케이스	-10.4182
▁소모	-10.4182
▁퍼	-10.4182
▁떡	-10.4182
▁봤네	-10.4184
▁구분	-10.4185
▁귀찮은	-10.4187
▁할줄	-10.4188
▁심심해	-10.4191
▁뭐임	-10.4197
▁향기	-10.4201
▁가능하면	-10.4202
▁났나봐	-10.4203
▁이러는	-10.4205
▁슬프게	-10.4211
▁연애하는데	-10.4213
▁답답하다	-10.4216
렸나봐	-10.4217
▁무덤덤해지	-10.422
▁반년	-10.4222
▁얘	-10.4226
▁나타나	-10.4229
▁만들었어	-10.423
▁들을	-10.4232
▁떠났	-10.4235
▁어장인	-10.4238
▁흘러가	-10.4241
▁질리	-10.4242
▁빨	-10.4243
▁찌질한	-10.4244
▁흐르는	-10.4246
▁가능하다	-10.4246
▁고백할	-10.425
▁잘해주	-10.425
▁빵	-10.4254
▁읽어보	-10.427
▁다르지	-10.427
▁당한	-10.4278
하는건	-10.4278
▁다가왔	-10.4279
▁기도	-10.4279
▁고백할까	-10.4282
▁여자에게	-10.4295
▁아픔이	-10.4298
▁좋을지	-10.4301
▁주말이네	-10.4309
▁우리집	-10.4312
▁자다가	-10.4324
▁많았나	-10.4324
▁속상	-10.4327
나서	-10.4327
▁보이네	-10.4333
▁사랑하나	-10.4335
▁복잡한가	-10.4337
▁부담스러워할까	-10.4344
▁바뀌어	-10.4357
번호를	-10.4358
▁한순간	-10.4366
▁일정	-10.4369
▁준비할	-10.4369
▁뒤에	-10.437
▁기다려야	-10.4375
▁말했어	-10.4378
▁그걸	-10.4392
▁겨울	-10.4392
▁카	-10.44
▁찬	-10.44
았습니다	-10.4405
▁편안하	-10.4409
▁했을	-10.4426
▁하셨나	-10.443
▁불면증	-10.4432
▁바보같	-10.4433
▁않지	-10.4439
▁영화보	-10.4439
▁답답	-10.445
▁행	-10.4455
▁합	-10.4465
▁남길	-10.4467
워질	-10.4467
복이	-10.4468
고싶다	-10.4472
이렇게	-10.4485
▁아니었을	-10.4497
▁얘기해	-10.4503
▁돌려보	-10.4506
▁적이	-10.4512
▁편하고	-10.4513
▁어떻게해	-10.4513
게임	-10.4516
▁만들기	-10.4517
▁지났어	-10.4536
▁연속	-10.4549
▁해보려	-10.4551
▁사라	-10.4551
▁연락할	-10.4557
▁극복하	-10.4565
▁필요한가봐	-10.4568
▁이어주	-10.4572
신이	-10.4586
▁울적해	-10.4587
▁학기	-10.4602
▁머릿속	-10.4607
왔다	-10.4612
▁나나	-10.4613
▁아이돌이	-10.4618
▁잘자	-10.4628
기로	-10.4633
▁커지	-10.4645
▁위험하	-10.4646
물	-10.4657
이란게	-10.4664
▁미치	-10.4674
▁짝사랑만	-10.468
되어	-10.4682
▁맞춰가	-10.4686
▁창업	-10.4693
▁모아야	-10.4706
달이	-10.4721
▁먹은	-10.4736
이었나봐	-10.474
▁후회없	-10.4746
▁기억해	-10.477
▁김	-10.4777
▁내기	-10.478
▁살려	-10.4781
주고	-10.4791
▁갖자	-10.4794
▁공부하면	-10.482
하려	-10.4832
▁결혼한	-10.4847
▁아껴주	-10.4862
▁끼	-10.4862
해져	-10.4869
갈수록	-10.49
▁안주	-10.4905
▁내일이	-10.4911
음이	-10.492
▁거짓말이	-10.4922
▁너무나	-10.4926
▁버리는	-10.4931
▁늦는	-10.4949
해도될까	-10.4959
▁건데	-10.4963
▁착각이	-10.4964
▁운명인가	-10.4977
사람을	-10.4989
▁키우는	-10.4994
▁배워보	-10.5002
▁깔끔하	-10.5007
했네요	-10.5013
싶어	-10.5022
▁이별하는	-10.5024
봤어	-10.5038
▁평가	-10.5067
운을	-10.5072
▁들어올	-10.5075
려도	-10.509
버는	-10.5097
▁아니네	-10.5108
▁의지해	-10.5116
▁기억에	-10.5135
▁설레는	-10.514
▁힘들까	-10.5148
▁알지	-10.5157
▁학교에	-10.5173
▁못하	-10.5174
▁나눠보는	-10.5191
▁표시	-10.5207
▁마주하	-10.5238
▁따지	-10.5243
▁복잡하겠	-10.5249
이다	-10.5258
였나봐	-10.5259
▁없었	-10.5285
이니	-10.5299
납니다	-10.5325
▁이용해	-10.5329
▁잡는	-10.533
▁포기해야	-10.5334
▁해야할	-10.5353
겼어	-10.5356
▁나지	-10.5367
▁정확	-10.5375
▁모으	-10.5377
▁말로	-10.539
▁삭제하	-10.5396
▁대화하는	-10.5396
▁올랐	-10.54
▁붙	-10.5406
▁재미있는	-10.5456
▁성장하	-10.5456
▁느껴보	-10.5466
▁맞춰주	-10.5467
▁헛헛	-10.5515
▁실수한	-10.5516
▁은퇴	-10.5526
▁먹자	-10.5532
▁부족한가	-10.5542
▁생각하기	-10.5551
▁복잡	-10.5563
근	-10.5573
될까	-10.5577
버	-10.5583
▁없는거	-10.5585
▁오지	-10.5585
이길	-10.5586
▁정리해	-10.5587
▁욕해	-10.5587
▁자연	-10.5591
한거	-10.5595
▁못하겠	-10.5607
한대	-10.5623
▁재밌을	-10.5624
기를	-10.5631
▁여사친	-10.5634
▁비오	-10.564
해야할까	-10.5673
▁빠	-10.5673
▁부탁해	-10.5674
▁검색	-10.568
▁될지	-10.5681
▁깊었	-10.5698
여자	-10.5714
▁감으	-10.5726
각이	-10.5737
▁되는거	-10.574
▁뭐하면	-10.5753
인건가	-10.5756
▁아니었나	-10.5757
▁도와	-10.5775
▁안에	-10.5783
▁해줄	-10.5789
야겠어	-10.5807
▁소문이	-10.5811
나갔어	-10.5819
▁표현하	-10.5829
드세요	-10.584
▁접어두	-10.5846
▁남자분들	-10.5903
▁따듯	-10.5904
▁반에	-10.5912
▁타나	-10.5945
우는	-10.5946
▁단순	-10.5947
▁어떻	-10.5951
▁지키	-10.5976
▁이것	-10.5983
▁상태인	-10.5994
같이	-10.601
파	-10.602
▁차가	-10.6042
▁노력해보	-10.6053
▁세달	-10.6061
▁학생	-10.6061
치는	-10.6063
망	-10.607
데이트	-10.6084
▁후회할까	-10.6088
▁적어보	-10.6094
▁인연이었	-10.6108
▁했네	-10.6122
넘	-10.6132
향	-10.6149
▁아쉽	-10.6153
됐	-10.6157
▁돌아보	-10.6161
▁서운	-10.6166
▁많아지	-10.6175
▁말한	-10.6176
▁친해	-10.6178
구경	-10.6187
공원	-10.6187
햇	-10.6188
▁고치고	-10.6193
▁왕따	-10.6195
순	-10.6198
확	-10.6199
했을까	-10.62
▁부르	-10.6201
갑	-10.6201
있습니다	-10.6202
잔	-10.6204
회	-10.6209
참	-10.6212
▁제안	-10.622
갑니다	-10.6225
쪄	-10.6227
뒀	-10.6227
온다	-10.6229
칼로	-10.6231
색	-10.6239
뜨	-10.6241
특	-10.6244
처리	-10.6247
영상	-10.6248
준비	-10.625
▁찾	-10.6251
공	-10.6255
받으	-10.6255
클	-10.6259
분들	-10.6264
놔	-10.6268
선배	-10.6271
건강에	-10.6272
조건	-10.6272
욕	-10.6274
5	-10.6275
▁일인	-10.6276
옷	-10.6279
올려	-10.6281
어머	-10.6282
그래	-10.6291
▁진지	-10.6295
▁화가나	-10.6297
쳤어	-10.6305
▁아니지	-10.6309
▁많은가	-10.6309
오래	-10.631
내고	-10.6313
▁안될	-10.6328
냈	-10.6331
▁일기	-10.6349
▁입으	-10.6362
▁키워	-10.6374
▁못난	-10.6386
년만	-10.6399
▁기다	-10.6416
▁공개	-10.6419
나가는	-10.6423
▁집중하	-10.6435
▁것만	-10.6442
롭	-10.646
을때	-10.6461
▁태어	-10.6477
▁기술	-10.6482
▁잘지내	-10.6486
▁지쳤	-10.6492
▁솔직	-10.6499
▁아깝	-10.6501
룩	-10.6505
▁무뎌지	-10.6514
▁맛있어	-10.6519
립니다	-10.6523
닝	-10.653
한건가	-10.6536
▁진행	-10.6541
▁나빠	-10.6544
▁솔로	-10.6547
냥	-10.6548
족	-10.6551
▁두근거	-10.6559
▁미칠	-10.6559
▁끊겼	-10.656
으신가	-10.6561
▁변덕	-10.6563
텐	-10.6564
▁중국	-10.6564
▁아물	-10.6565
▁오르	-10.6567
압	-10.6567
류	-10.657
▁예전	-10.657
둬야	-10.657
힌	-10.6571
▁개강이	-10.6571
▁슈퍼	-10.6571
▁설득	-10.6571
맷	-10.6571
▁걷다	-10.6571
▁넣어	-10.6571
▁녹여	-10.6571
▁사춘기	-10.6571
눅	-10.6571
b	-10.6571
▁각질제거	-10.6571
▁객관적	-10.6571
▁건강습관이	-10.6571
▁그린라이트	-10.6571
▁꼰대	-10.6571
▁꾹꾹	-10.6571
▁끊으	-10.6571
▁낮잠	-10.6571
▁닮아	-10.6571
▁대기업	-10.6571
▁뒷감당	-10.6571
▁레시피	-10.6571
▁무한리필	-10.6571
▁버릇	-10.6571
▁베트남	-10.6571
▁변신	-10.6571
▁선풍기	-10.6571
▁소액결제	-10.6571
▁수면양말	-10.6571
▁식습관	-10.6571
▁싶을	-10.6571
▁쌓였	-10.6571
▁쓰게	-10.6571
▁쓰일	-10.6571
▁아울렛	-10.6571
▁애프터	-10.6571
▁어떡함	-10.6571
▁엄마아빠	-10.6571
▁옳은	-10.6571
▁원동력이	-10.6571
▁웹툰	-10.6571
▁유부녀	-10.6571
▁이모티콘	-10.6571
▁인터넷	-10.6571
▁입냄새	-10.6571
▁접어야	-10.6571
▁좋긴	-10.6571
▁짧아	-10.6571
▁최저	-10.6571
▁팍팍	-10.6571
▁풀리	-10.6571
▁하우스웨딩	-10.6571
▁허전할	-10.6571
▁현타	-10.6571
▁훔쳐보	-10.6571
껄	-10.6571
니깐	-10.6571
덥	-10.6571
렵니다	-10.6571
샌	-10.6571
앨	-10.6571
엠	-10.6571
율	-10.6571
짚	-10.6571
째깍	-10.6571
쭤	-10.6571
팬	-10.6571
펑	-10.6571
풋	-10.6571
▁고시원	-10.6572
▁교양수업	-10.6572
▁뒹굴	-10.6572
▁몰려	-10.6572
▁비정상이	-10.6572
▁쌓여	-10.6572
▁알바생	-10.6572
▁좋으니	-10.6572
▁좌절	-10.6572
▁허전함	-10.6572
놨	-10.6572
팁	-10.6572
▁낭만이	-10.6572
▁브랜드	-10.6572
▁케익	-10.6572
▁확률	-10.6572
줌	-10.6572
▁뱃살	-10.6572
▁침묵	-10.6572
▁떨어뜨려	-10.6572
▁월세	-10.6572
▁증명	-10.6572
▁바꿨어	-10.6572
▁비행기표	-10.6572
▁어리석	-10.6572
▁메뉴얼	-10.6572
▁무언가	-10.6572
▁상종하지	-10.6572
▁찢어지	-10.6572
▁손가락	-10.6572
▁환기	-10.6572
▁골프	-10.6572
▁넘어가네	-10.6572
▁제정신	-10.6572
▁블록	-10.6572
▁외출하	-10.6572
▁예능	-10.6572
▁뉴스	-10.6572
▁초기화	-10.6572
▁뜨겁	-10.6572
▁한심해	-10.6572
▁탈모	-10.6572
듭니다	-10.6572
▁뛰어넘	-10.6572
▁실패	-10.6572
▁알뜰폰	-10.6572
▁친절한	-10.6572
▁희생양	-10.6572
▁감정기복	-10.6572
▁베프	-10.6572
▁미용실	-10.6572
▁무모	-10.6572
▁똥차	-10.6572
▁패션	-10.6572
▁어렸을때	-10.6572
▁대청소	-10.6572
▁학벌	-10.6572
▁조급하	-10.6572
▁주름살	-10.6572
▁예비	-10.6572
▁자장가	-10.6572
▁부탁드립니다	-10.6572
▁작동	-10.6572
▁피부관리	-10.6572
▁발견	-10.6572
▁떨린다	-10.6572
▁똑같애	-10.6572
▁승진	-10.6572
▁롱디	-10.6572
▁열흘	-10.6572
▁공유	-10.6572
▁친척	-10.6572
▁당첨	-10.6572
▁부담스러울	-10.6572
▁종지부	-10.6572
▁실행	-10.6573
▁태연	-10.6573
▁직전	-10.6573
▁빈자리	-10.6573
▁들이대	-10.6573
▁고마	-10.6573
▁잡념	-10.6573
▁출발	-10.6573
▁외부	-10.6573
▁바쁠	-10.6573
▁리드	-10.6573
▁장갑	-10.6573
▁청결	-10.6573
▁참석하는	-10.6574
▁손편지	-10.6574
▁비밀연애	-10.6574
▁어느정도	-10.6574
콜록	-10.6574
▁선택이었을	-10.6574
▁음료	-10.6574
▁많으시	-10.6574
▁감출	-10.6574
▁나이테	-10.6574
▁변화시켜	-10.6574
▁예상	-10.6575
▁다듬	-10.6575
▁고독	-10.6575
잔하네	-10.6575
▁실수했나	-10.6575
▁근데	-10.6575
▁전여자친구	-10.6575
▁다녀왔어	-10.6575
▁아쉬운	-10.6575
▁지압	-10.6576
▁무뎌질	-10.6576
▁정해져	-10.6576
▁사표	-10.6576
▁미안하다	-10.6576
폭력	-10.6576
▁속박	-10.6577
▁보냈습니다	-10.6577
▁알아볼	-10.6577
▁겁나	-10.6577
▁비정규직	-10.6577
▁연애세포	-10.6577
▁주량	-10.6578
▁두근거려	-10.6578
▁이겨야	-10.6578
▁감동	-10.6579
▁부족해	-10.6579
▁지각	-10.6579
▁숙제	-10.6579
▁입학	-10.6579
▁한번쯤	-10.6579
▁봤나	-10.6579
▁끝났습니다	-10.6579
▁지웠어	-10.658
디오	-10.658
▁지낸	-10.658
▁필수	-10.658
▁배울까	-10.6581
▁싸울	-10.6581
▁지친	-10.6581
▁방금	-10.6581
스트	-10.6582
▁프로	-10.6582
▁요구	-10.6582
▁졸린	-10.6582
▁심해지는	-10.6583
▁실천	-10.6583
▁떠날	-10.6583
▁끊겼어	-10.6583
▁망함	-10.6583
▁구두	-10.6583
▁역할	-10.6584
▁강제	-10.6584
▁돌아와	-10.6584
▁잊혀질까	-10.6585
▁냉	-10.6585
▁정성	-10.6585
렸으면	-10.6585
▁좋아한대	-10.6585
▁미화되기	-10.6586
▁구워	-10.6586
▁인지시켜	-10.6586
▁따져	-10.6587
▁배신	-10.6587
▁면도기	-10.6588
▁무리하지	-10.6588
▁12	-10.6588
▁모른척	-10.6588
▁기다릴게요	-10.6589
워서	-10.6589
▁아부	-10.659
▁지식	-10.659
▁진리	-10.659
▁오바	-10.6591
▁필기	-10.6591
▁방심	-10.6591
▁습관처럼	-10.6592
▁보냈네	-10.6592
▁우정	-10.6593
▁메리	-10.6593
▁의심해	-10.6593
▁난방	-10.6593
▁풀려	-10.6593
▁괜찮겠지	-10.6593
▁티나나	-10.6593
▁연상	-10.6595
▁월급날	-10.6595
▁단수	-10.6596
▁싶으면	-10.6597
▁뜨	-10.6597
▁이별준비	-10.6597
▁알아내	-10.6599
▁칼	-10.66
▁익숙해져	-10.66
▁떠나간	-10.66
▁감성적이	-10.66
추적	-10.6601
식물	-10.6602
▁필요한가	-10.6603
▁보란	-10.6603
▁의자	-10.6605
▁냉면	-10.6607
▁일방적	-10.6608
개월차	-10.6608
▁글자	-10.6608
재인가	-10.6609
▁시도해	-10.661
▁표현하기	-10.6612
▁아쉬움이	-10.6613
▁되려면	-10.6613
▁중요하니까	-10.6613
▁착잡하	-10.6613
▁성덕이	-10.6613
▁일시적	-10.6615
▁잘못입니다	-10.6615
자마	-10.6616
차곡	-10.6616
▁미워하지	-10.6617
▁싸운	-10.6617
▁정리하려	-10.6617
▁불만	-10.6618
▁해봤는데	-10.6619
▁확실해	-10.662
▁농	-10.6621
▁어렵다	-10.6621
주물	-10.6621
▁한약	-10.6622
▁실력	-10.6624
▁운동화	-10.6624
▁응	-10.6624
▁뛰어	-10.6625
▁막힌다	-10.6625
▁윗	-10.6625
▁쫄	-10.6625
▁예약	-10.6625
▁굴	-10.6625
▁100	-10.6625
▁물질	-10.6626
식하는	-10.6626
▁술한잔	-10.6626
▁영어	-10.6626
▁대수	-10.6627
▁죽는	-10.6627
▁달력	-10.6628
▁터질	-10.6629
▁죽을거	-10.6629
▁외국어	-10.663
▁하다니	-10.6631
▁여러명	-10.6633
▁늙어가	-10.6633
▁도망가	-10.6633
▁사줘	-10.6633
▁끈을	-10.6635
▁배정	-10.6635
▁없는걸까	-10.6636
▁나쁘	-10.6637
▁나왔네	-10.6638
▁오셨	-10.6639
▁웃음	-10.6639
▁공간	-10.6639
▁연락왔어	-10.6641
▁견디기	-10.6641
▁짜증나네	-10.6644
▁다녀와	-10.6644
▁넘었는데	-10.6645
▁알겠어	-10.6647
▁안받아	-10.6647
체인	-10.6651
초록	-10.6652
▁운이	-10.6653
▁자르	-10.6655
▁헷갈리네	-10.6657
▁어이없	-10.6659
▁돌아서	-10.666
부를	-10.6662
▁마지막이	-10.6662
▁고백해야	-10.6664
▁위로해줄	-10.6666
▁수능	-10.6667
▁하아	-10.6668
▁다칠	-10.6669
▁아는거	-10.667
▁액	-10.6672
▁차단하는	-10.6673
▁입장	-10.6673
▁상대적	-10.6675
종료	-10.6676
▁있는걸까	-10.6679
▁차인	-10.6679
▁받으시	-10.6679
▁붙이	-10.668
▁깨달았	-10.6682
▁결혼하기	-10.6682
▁해준	-10.6687
▁현금이	-10.6687
▁잘생겼어	-10.6687
▁올려달	-10.6688
들었겠	-10.6689
▁예뻐지	-10.6693
▁없대	-10.6694
▁좋아지고	-10.6696
▁반복되	-10.6698
▁잊지못	-10.6699
▁아니겠지	-10.6701
▁너와	-10.6705
▁끊기	-10.6706
담	-10.671
▁없는걸	-10.6713
▁죽었	-10.6714
▁센	-10.6716
▁견	-10.6716
주일	-10.6717
▁시작할	-10.6718
▁해줄까	-10.6719
▁미팅	-10.6721
▁세우	-10.6725
▁결정하는	-10.6726
▁민	-10.6727
▁누나	-10.6728
탔어	-10.6729
▁손톱이	-10.6732
▁나오네	-10.6733
▁독서	-10.6734
▁동생한테	-10.6736
▁냄새나	-10.6737
중입니다	-10.6739
▁기침	-10.6739
▁간대	-10.6746
▁사전	-10.6747
▁남자입니다	-10.6749
▁단점	-10.6752
▁연습해	-10.6753
▁싸우고	-10.6755
▁남자에게	-10.676
▁정리되	-10.6763
▁부려	-10.6763
지우	-10.6769
▁맛있다	-10.677
▁꾸준한	-10.6771
▁애석하	-10.6777
▁좋아졌어	-10.6786
들었나봐	-10.6787
▁관심있	-10.6787
▁그렇다	-10.6789
▁대하는	-10.6792
런지	-10.6792
▁품	-10.6814
▁앞이	-10.6817
▁페	-10.6818
▁하셔야	-10.6819
▁누구야	-10.6824
▁운동하	-10.6825
▁사랑이라는	-10.6831
▁지적	-10.6836
▁결심이	-10.6836
▁사이로	-10.6838
▁이뤄지	-10.6841
해줘서	-10.6843
▁들어줄	-10.6844
▁직	-10.6847
▁하러	-10.6848
▁돌아오지	-10.6848
▁필요하지	-10.6856
▁보내지	-10.6856
▁무덤덤해	-10.6861
▁뜨는	-10.6866
▁특	-10.6869
▁약간	-10.6872
▁사주	-10.6874
▁허무하네	-10.6881
았	-10.6883
▁사귀다	-10.6893
었다	-10.6894
▁연락오	-10.6907
▁처리	-10.691
▁색	-10.6911
발이	-10.6913
▁여지	-10.6915
▁치맥이	-10.6915
▁갑니다	-10.6921
비가	-10.6923
▁피로	-10.6935
았으면	-10.6935
가봅니다	-10.6941
▁축하해	-10.6942
▁영상	-10.6946
두통	-10.6951
▁향이	-10.6952
▁복잡해	-10.6953
▁가려고	-10.6954
▁겨울에	-10.6973
▁않기	-10.698
▁안좋아	-10.6988
▁마시지	-10.6999
이크	-10.7013
▁모르겠다	-10.7015
▁수준	-10.7016
▁좋은점	-10.7018
▁전과	-10.7021
▁진도	-10.7027
▁화해	-10.7028
▁부담되	-10.7043
▁척하는	-10.7047
▁힘들겠죠	-10.7071
▁매력있	-10.7072
이럴까	-10.7096
▁이어가	-10.7098
▁결혼하고	-10.7099
▁판	-10.7107
▁헤어졌다	-10.7109
정기	-10.711
▁귀찮다	-10.7112
▁불안하	-10.7125
했던거	-10.7127
▁생각하나	-10.713
▁뭐해	-10.713
되니까	-10.7138
▁질린	-10.7139
▁순수하	-10.7144
▁인연인	-10.7146
▁떨어	-10.7147
▁말보다	-10.7153
▁잊어가는	-10.7155
▁놓아줄	-10.716
▁당당해	-10.716
▁친구인데	-10.7169
져서	-10.7175
▁별로인	-10.7178
연이	-10.7186
개시	-10.7193
▁취직할	-10.7198
▁아프게	-10.7204
▁카페에	-10.7208
▁익숙해지	-10.7208
▁괜찮다가	-10.7212
어야	-10.7215
▁도와줄	-10.7226
▁가야겠	-10.724
▁감당	-10.7247
야겠지	-10.7262
▁거겠지	-10.7269
▁할게	-10.7273
되가네	-10.7273
해야겠다	-10.7284
▁붙잡아	-10.7285
▁마주치면	-10.7294
▁학생이	-10.7303
▁이성이	-10.7323
▁크리스마스에	-10.7324
여행	-10.7358
▁일하	-10.736
▁열어	-10.7389
▁사람이었나	-10.7395
▁참을	-10.7397
▁타인	-10.7399
▁좋은거	-10.7403
▁이래	-10.7407
▁취직하	-10.7408
시려	-10.7418
▁정상	-10.7421
▁덤덤해	-10.7435
▁가져가	-10.7476
▁결혼에	-10.7477
▁살았	-10.7477
▁든든하	-10.7508
▁하는지	-10.7519
▁초대하	-10.752
받으면서	-10.7524
▁어이	-10.7531
▁되어가	-10.7541
▁상황에	-10.7542
▁끝내는	-10.7553
▁물이	-10.7578
▁흐르	-10.7602
해줬어	-10.7604
▁병	-10.7613
▁만한	-10.7622
▁지켜보는	-10.765
▁듣는	-10.765
되시길	-10.7652
▁거였	-10.7662
하기로	-10.7666
▁솔직해	-10.7667
▁생각하게	-10.7676
▁메	-10.7682
사람에게	-10.7698
▁나니	-10.7712
▁원해	-10.7714
돌	-10.7716
▁그사람이	-10.772
▁상처주	-10.773
▁달에	-10.7731
▁다치	-10.7734
올까	-10.7737
▁붙잡는	-10.7745
▁헛헛하	-10.7752
▁절약해	-10.7767
▁고백해	-10.7767
▁났	-10.7771
리면	-10.7789
▁당당	-10.7794
서야	-10.7805
▁수건	-10.7822
▁찾아오네	-10.7824
거지	-10.7837
▁감성	-10.7844
겟	-10.7856
겠대	-10.786
▁알아봐	-10.7861
▁일주일이	-10.7879
▁잘라	-10.7883
▁나약	-10.7889
▁식었	-10.7895
▁친구라	-10.7927
볼때	-10.7945
▁고백한	-10.796
▁버려야겠	-10.8016
▁부리	-10.8026
▁헤어짐에	-10.8031
없어	-10.8033
▁용서하	-10.8034
▁건들	-10.8037
▁해보	-10.8048
인줄	-10.8057
▁꿨	-10.8068
▁동물이	-10.8079
▁깎아야	-10.8082
이었을까	-10.8094
▁미안해하	-10.8095
▁우울하	-10.8098
▁겠지	-10.81
▁싫은가봐	-10.8103
라네	-10.8123
보려구	-10.816
▁지냈	-10.8163
▁끝인가봐	-10.8164
▁안좋	-10.8167
린다	-10.8187
▁예쁘다	-10.8189
렇게	-10.8209
▁떨면	-10.8212
없는	-10.8213
왔네	-10.822
▁무엇인	-10.8223
지겠네	-10.8232
▁그럴수	-10.8239
줘서	-10.8271
▁이길	-10.8278
▁사랑받	-10.8281
▁되어요	-10.8285
▁올리	-10.8286
▁터지	-10.8301
▁다양	-10.831
▁되는건	-10.8313
▁남자의	-10.8336
주실	-10.8342
▁결혼준비	-10.8345
▁짝	-10.836
려는	-10.837
▁보았	-10.8378
▁물가	-10.8387
▁도와드	-10.8395
▁많겠지	-10.8399
▁안정적	-10.8408
▁들어왔	-10.8419
던데	-10.842
▁하는거	-10.8426
다니는	-10.8426
▁찾아가는	-10.8448
▁처럼	-10.8471
었네	-10.8481
▁상황인	-10.8504
뻔	-10.8533
▁좋아했	-10.8574
▁오락가락	-10.8576
됩니다	-10.8579
하고싶다	-10.8579
문이	-10.8616
직	-10.869
안보여	-10.8697
있을까	-10.8727
▁싶다는	-10.8733
▁보시	-10.8736
▁지금이	-10.8739
▁든든	-10.8745
▁야근이	-10.8754
이었을	-10.8774
▁버려야	-10.8777
되지	-10.8797
▁연인이	-10.8805
망이	-10.8815
▁사랑했	-10.8815
어보고	-10.8844
▁뻔했	-10.8852
▁말만	-10.8855
▁벌어	-10.8863
안한다	-10.8877
볼	-10.8885
▁해야하나	-10.8889
▁착하	-10.8894
▁잘못한	-10.8894
▁헤어지고나	-10.8929
▁맞나봐	-10.8933
아서	-10.8938
▁일이라	-10.894
▁아이돌	-10.9
하겠어	-10.901
▁사실이	-10.9026
▁남사친	-10.904
▁말자	-10.9045
▁머릿속에	-10.9058
▁찾아야	-10.9059
해줬으면	-10.9072
간을	-10.9097
▁기억해주	-10.9098
▁연속이	-10.9106
▁나야	-10.9116
▁행복이	-10.9131
▁사랑이에요	-10.9167
▁사랑이었으	-10.9174
있	-10.9178
▁날들	-10.919
▁멈춰	-10.9239
와야	-10.924
웠어	-10.9242
▁생각난다	-10.9254
▁언제가	-10.9259
▁풀어야	-10.928
▁지지	-10.9314
겁	-10.9319
랑이	-10.9328
절한	-10.933
완	-10.9335
군	-10.9337
못했던	-10.934
육	-10.934
절	-10.9349
유	-10.9357
▁현실적	-10.9371
테	-10.9379
▁예민	-10.9381
▁포기하	-10.939
▁살아가는	-10.9402
▁다되가	-10.9427
착	-10.9445
▁소개해	-10.9448
침	-10.9454
▁관계에	-10.9464
호	-10.9467
페	-10.9472
▁아련	-10.9478
▁선물해	-10.948
맘	-10.9483
렀어	-10.9491
▁대단	-10.9496
프	-10.9499
스타일	-10.9501
투	-10.9504
▁나겠	-10.9508
▁해외여행	-10.9511
보니	-10.9516
▁이별중	-10.9519
폭	-10.952
쌈	-10.9524
롱	-10.9525
끈	-10.9535
영	-10.9543
계절	-10.955
▁따라가	-10.9554
꿈	-10.9559
잼	-10.9561
실에	-10.9562
볶	-10.9562
팩	-10.9562
빈	-10.9562
품	-10.9563
얘	-10.9572
앞이	-10.9573
속에	-10.9576
빨	-10.9579
▁두근거리	-10.958
안할	-10.9585
노	-10.9585
빵	-10.9587
시켜	-10.9591
꿀	-10.9593
포	-10.9594
필	-10.9596
맞나	-10.9596
싸움	-10.9599
▁때인	-10.9599
널	-10.96
팔	-10.9602
신청	-10.9602
슬	-10.9604
동물	-10.9604
톡	-10.9605
보이네	-10.9605
상담	-10.9606
문득	-10.9607
책	-10.9607
커	-10.9608
됨	-10.9608
편지	-10.9609
뒤	-10.9609
1	-10.961
커플	-10.961
봄	-10.9613
때문에	-10.9615
선물	-10.9618
치료	-10.9618
노래	-10.9618
따로	-10.9624
머리	-10.9625
끄러워	-10.9627
당했어	-10.963
그만	-10.9632
▁치열	-10.9633
마음	-10.9636
관리	-10.9639
생각이	-10.9641
▁말하면	-10.9642
▁짝사랑인	-10.9654
사진	-10.9657
▁기네	-10.9658
수건	-10.968
잡는	-10.9683
싹	-10.9687
만남	-10.97
▁채	-10.9704
▁않다	-10.9734
나오	-10.9736
▁가득	-10.9755
▁힘드시	-10.9763
▁털	-10.9773
▁멀어진	-10.9779
달라는	-10.9782
▁나는데	-10.9783
신가	-10.9793
▁무색하	-10.9805
탈이	-10.9813
▁움직	-10.9817
거니	-10.9837
처	-10.9841
곡	-10.9843
▁잘하니	-10.9843
▁사겨	-10.9845
▁똑똑	-10.9845
주인	-10.9865
꾼	-10.9868
▁싶으	-10.987
▁상메	-10.9872
▁흔들	-10.9876
▁벗어	-10.9878
▁한숨	-10.9882
▁모른척하	-10.9882
사람은	-10.9887
▁헷갈	-10.989
납	-10.989
꿔	-10.9891
▁그런지	-10.9892
닥	-10.9894
것만	-10.9896
▁집안	-10.9896
▁자책	-10.99
즘	-10.99
▁씁쓸	-10.9901
촉	-10.9902
궈	-10.9902
▁바랄	-10.9902
▁사회	-10.9903
▁즐	-10.9904
둥	-10.9905
낌	-10.9905
봉	-10.9905
뱃	-10.9905
▁밑바닥	-10.9905
▁쓰리	-10.9905
▁얻는	-10.9905
▁40	-10.9905
▁cc	-10.9905
▁간섭	-10.9905
▁간질간질	-10.9905
▁견과류	-10.9905
▁공휴일에	-10.9905
▁구남친	-10.9905
▁구썸남	-10.9905
▁기쁨	-10.9905
▁끊어야	-10.9905
▁낫지	-10.9905
▁낮술	-10.9905
▁눈꺼풀	-10.9905
▁대리효도	-10.9905
▁드레스	-10.9905
▁딴짓	-10.9905
▁땡긴다	-10.9905
▁로맨스	-10.9905
▁맞이	-10.9905
▁맞출	-10.9905
▁매몰	-10.9905
▁몰아	-10.9905
▁받네	-10.9905
▁배불러	-10.9905
▁벗겨	-10.9905
▁비트코인	-10.9905
▁비혼주의	-10.9905
▁빌리	-10.9905
▁빌릴까	-10.9905
▁뻐근	-10.9905
▁설렐	-10.9905
▁세탁	-10.9905
▁쇼핑몰	-10.9905
▁숫자	-10.9905
▁시간낭비인	-10.9905
▁싫었	-10.9905
▁싫으	-10.9905
▁싫지	-10.9905
▁심쿵	-10.9905
▁썼다	-10.9905
▁아날로그	-10.9905
▁어딘가	-10.9905
▁얼떨떨	-10.9905
▁엉엉	-10.9905
▁오지랖	-10.9905
▁옥상	-10.9905
▁우습	-10.9905
▁의존	-10.9905
▁잘생겨	-10.9905
▁저편	-10.9905
▁접은	-10.9905
▁주인공	-10.9905
▁쪼금	-10.9905
▁창피해	-10.9905
▁첫이별	-10.9905
▁춥고	-10.9905
▁토닥토닥	-10.9905
▁편린	-10.9905
▁평범	-10.9905
▁표출	-10.9905
▁헥헥	-10.9905
▁현관문	-10.9905
▁현명	-10.9905
▁호르몬	-10.9905
▁혼란스러워	-10.9905
▁혼란스럽	-10.9905
▁혼밥	-10.9905
▁혼인신고	-10.9905
▁흐지부지	-10.9905
▁히스테리	-10.9905
겐	-10.9905
넋	-10.9905
닷	-10.9905
돕	-10.9905
됬네	-10.9905
땜	-10.9905
띠	-10.9905
렴	-10.9905
륵	-10.9905
범	-10.9905
벤	-10.9905
샜	-10.9905
송	-10.9905
왓	-10.9905
젤	-10.9905
짼데	-10.9905
춰	-10.9905
쿠	-10.9905
▁두렵	-10.9905
▁예측	-10.9905
▁하객	-10.9905
▁휴유증	-10.9905
▁흐려지	-10.9905
▁느꼈	-10.9905
▁베란다	-10.9905
▁씻어	-10.9905
▁엮여	-10.9905
▁피시방	-10.9905
▁혼나	-10.9905
▁근교	-10.9905
▁예쁠	-10.9905
옵	-10.9905
▁버렸다	-10.9905
▁소름돋	-10.9905
▁환경	-10.9905
▁도저히	-10.9905
▁스릴있	-10.9905
▁투잡	-10.9905
오른다	-10.9905
▁힘이드네	-10.9905
▁불가능	-10.9905
▁주워담	-10.9905
▁식단조절	-10.9905
▁씨씨	-10.9905
▁자극이	-10.9905
▁관찰	-10.9905
▁창문	-10.9905
▁환심	-10.9905
그램	-10.9905
▁아까운	-10.9905
▁곤두	-10.9905
▁욜로	-10.9905
▁환장	-10.9905
지못한	-10.9905
▁비참해	-10.9905
▁비참한	-10.9905
▁공황	-10.9905
▁뒤돌아	-10.9905
▁자유여행이	-10.9905
▁격식	-10.9905
▁안타까워	-10.9905
▁뜨끈	-10.9905
▁서핑	-10.9905
▁예랑이	-10.9905
▁탄다	-10.9905
▁색다른	-10.9905
▁바람둥이	-10.9905
▁체력	-10.9905
▁숙취	-10.9905
▁노잼	-10.9905
▁친군	-10.9905
▁비오는날	-10.9905
▁카공	-10.9905
더군	-10.9905
▁깜빡거려	-10.9905
▁찬물	-10.9905
블루	-10.9905
▁병행	-10.9905
▁충실하	-10.9905
▁투성이	-10.9905
▁갈등	-10.9905
▁감수성	-10.9906
▁정열적	-10.9906
▁태그	-10.9906
▁빼앗	-10.9906
▁계획적이	-10.9906
▁난감하	-10.9906
▁힘드셨	-10.9906
▁사로잡	-10.9906
▁떨어짐	-10.9906
게되네	-10.9906
▁봤습니다	-10.9906
▁스노	-10.9906
▁억울	-10.9906
▁태어났을까	-10.9906
▁재설계	-10.9906
▁오랜연애	-10.9906
▁불순	-10.9906
▁미안하대	-10.9906
베리	-10.9906
▁위축	-10.9906
▁생일선물	-10.9906
▁짜증남	-10.9906
▁증상이	-10.9906
▁도와준	-10.9906
▁나빴네	-10.9906
▁직후	-10.9907
▁찬성	-10.9907
▁허허	-10.9907
▁뒤숭숭하네	-10.9907
▁길거리에	-10.9907
▁심남	-10.9907
▁잊혀진	-10.9907
용품	-10.9907
▁바나나	-10.9907
▁이끌어	-10.9907
▁되돌아보	-10.9908
▁가벼워질	-10.9908
▁백수	-10.9908
▁씹어	-10.9908
▁갑작스러웠	-10.9908
▁좋았을텐데	-10.9908
▁갈궈	-10.9908
▁체질	-10.9908
▁공복이	-10.9908
▁제습기	-10.9908
▁탈출구	-10.9908
▁유명	-10.9908
▁구박하	-10.9908
▁치마	-10.9909
잔치	-10.9909
▁계약	-10.9909
▁설마	-10.9909
▁헷갈려	-10.9909
▁배워가는	-10.9909
▁어울릴까	-10.991
▁반영	-10.991
▁심난	-10.991
▁미끄러질	-10.991
▁속아주	-10.991
▁내딛	-10.991
▁스쳐	-10.991
▁신기하	-10.9911
▁스케	-10.9911
▁쉬었다	-10.9911
▁영화보러	-10.9911
▁11	-10.9911
▁떠나보내	-10.9911
▁벌레	-10.9911
▁보여드리	-10.9911
▁호구	-10.9911
▁보인다	-10.9912
▁경제	-10.9912
▁정리했습니다	-10.9912
▁무리일까	-10.9912
▁편안해질	-10.9912
▁분양	-10.9912
▁깨짐	-10.9912
▁대학원	-10.9913
▁친구사이	-10.9913
▁숨막히	-10.9913
▁유료	-10.9913
▁연하	-10.9913
▁사과해야	-10.9913
▁천국	-10.9914
▁정신병	-10.9914
▁지옥같	-10.9914
▁배워볼까	-10.9914
▁나쁜놈	-10.9914
▁바꿔볼까	-10.9914
▁한눈	-10.9915
▁느낀다면	-10.9915
▁구매	-10.9915
▁연락했습니다	-10.9915
▁있었는지	-10.9915
▁까먹었어	-10.9915
님들	-10.9915
▁취소	-10.9915
▁단단해지	-10.9915
▁술자리	-10.9915
▁느껴질	-10.9915
▁거둬	-10.9915
▁서울	-10.9915
▁매달려	-10.9916
▁권리	-10.9916
▁식혀	-10.9916
▁바닥	-10.9916
▁찍었네	-10.9916
설계	-10.9917
▁식사	-10.9917
▁무너졌어	-10.9917
▁누워	-10.9917
▁꿈꾸	-10.9918
▁다닐까	-10.9918
▁주차장	-10.9918
▁즐거워	-10.9918
▁공통점	-10.9918
▁바람피	-10.9918
▁요청	-10.9918
겁니다	-10.9918
▁부팅	-10.9919
▁귀여운	-10.992
▁보고파	-10.992
▁잘살고	-10.9921
▁양치	-10.9921
▁사회에서	-10.9921
▁공부방법	-10.9922
▁그쪽	-10.9922
시키는	-10.9923
▁복잡했나	-10.9923
▁문화	-10.9923
▁달라질	-10.9923
▁잊자	-10.9923
▁남녀	-10.9924
▁사무	-10.9924
탈까	-10.9925
방비	-10.9925
▁고집	-10.9925
▁배려해야	-10.9925
▁이번달	-10.9925
▁기다렸나봐	-10.9926
▁골	-10.9926
▁자장면이	-10.9927
▁취직이나	-10.9927
▁지쳤어	-10.9928
▁되어가네	-10.9928
▁남아있	-10.9928
▁소심	-10.9929
▁보약	-10.9929
▁일주일이네	-10.9929
▁한달반	-10.993
▁매정	-10.993
▁난방비	-10.9931
픈	-10.9931
▁모임에	-10.9933
▁가고싶다	-10.9934
▁말조심	-10.9935
▁꼬시	-10.9936
▁밀려오	-10.9936
▁모여	-10.9936
▁예정	-10.9937
▁전학가	-10.9937
▁의심하지	-10.9938
▁엇갈리	-10.9938
▁식었어	-10.9938
▁수십	-10.994
버리네	-10.994
름이	-10.9942
지나갑니다	-10.9944
▁모처럼	-10.9944
준비하는방법	-10.9944
▁들텐데	-10.9944
▁재회했는데	-10.9945
▁속상할거	-10.9946
▁커플여행	-10.9946
▁하셔	-10.9947
▁미운	-10.9947
▁되돌	-10.9947
▁않으셨	-10.9948
▁물건들	-10.9948
▁해외	-10.9948
▁허기	-10.9949
▁미끄러	-10.9949
▁판단력	-10.9949
▁저음이	-10.995
▁살았는데	-10.995
▁여자사람	-10.995
▁나온대	-10.995
로그	-10.9951
▁사랑했으니	-10.9953
▁만져	-10.9953
▁어색해졌어	-10.9953
▁부러	-10.9953
▁추스리	-10.9953
▁장난인지	-10.9954
▁여기까지였	-10.9954
▁예고	-10.9954
▁계신	-10.9955
▁일반	-10.9955
가봐	-10.9955
▁약점	-10.9956
▁이사람	-10.9957
▁편하대	-10.9957
▁누구냐	-10.9957
▁사랑이야기	-10.9958
▁어쩔수없	-10.9958
▁안오지	-10.9958
▁특히	-10.9958
▁오랜만	-10.9958
▁않았다면	-10.9959
▁지날	-10.9961
▁졸라	-10.9962
▁너무너무	-10.9962
▁안되겠죠	-10.9962
▁뿌려	-10.9962
▁분에게	-10.9962
▁쟁취하는	-10.9963
▁신경쓰인	-10.9963
▁헤어져야하는	-10.9964
▁모르겠지만	-10.9965
▁낙이	-10.9965
▁세월이	-10.9965
▁공기	-10.9967
▁산다	-10.9967
라더니	-10.9967
되어있는	-10.9967
▁질문이	-10.9968
▁무섭다	-10.9968
▁무섭네	-10.9969
▁예쁜데	-10.997
▁연락오네	-10.9971
▁할말	-10.9973
▁어디가지	-10.9974
오게	-10.9974
▁괴롭다	-10.9975
▁채우	-10.9979
▁발라	-10.9979
▁다갔어	-10.9981
▁보임	-10.9981
▁깜빡	-10.9982
▁쭉	-10.9983
▁흠	-10.9983
▁떼	-10.9983
▁총회	-10.9983
▁악	-10.9983
▁불쑥	-10.9983
▁펴	-10.9983
▁꾸미	-10.9983
하셔야	-10.9984
▁날짜	-10.9984
▁직구	-10.9986
▁하트	-10.9987
▁김치	-10.9987
▁시급	-10.9988
간당	-10.9988
▁얘기하지	-10.9988
이브	-10.9988
해야할듯	-10.9989
▁없어졌으면	-10.9989
▁성숙해지	-10.9989
▁묻어두는	-10.9991
▁깔끔한	-10.9993
▁나이들	-10.9994
기사	-10.9995
▁수학여행가	-10.9995
▁데려다주려	-10.9995
▁잃을	-10.9996
▁한달째	-10.9997
▁역시나	-10.9997
▁만나기	-10.9998
▁마시기	-10.9999
▁정신과	-11
▁보셨나	-11
사는	-11
▁속시원해	-11.0001
▁적당해	-11.0002
▁침	-11.0003
▁아깝다	-11.0005
▁보듬어주	-11.0007
페이	-11.0008
▁싫어져	-11.001
▁알려면	-11.001
▁출근길	-11.0011
▁둔한	-11.0011
▁죽겠다	-11.0013
▁욕하는	-11.0013
▁생생한	-11.0014
▁나갈까	-11.0016
▁지냈나	-11.0016
▁가을이	-11.0017
▁언제부터	-11.0018
다리	-11.0025
▁무거	-11.0025
▁잔인	-11.0025
▁비용	-11.0026
▁찾은	-11.0026
▁깨진	-11.0026
▁작아지	-11.0033
▁비와	-11.0033
다른	-11.0033
▁벌려	-11.0034
▁입을까	-11.0034
▁무뎌지는	-11.0039
▁아려	-11.0042
▁힘들어져	-11.0042
▁맞는거	-11.0043
▁병이	-11.0044
▁소개받	-11.0045
▁약해지	-11.0048
▁해봤어	-11.0052
▁일상으로	-11.0054
▁크겠	-11.0055
▁없습니다	-11.0056
쳐버리	-11.0056
▁흘렸	-11.0057
▁둘다	-11.0057
로워	-11.0058
▁동거하다	-11.0059
▁아니었어	-11.0061
▁추가	-11.0062
▁아프지만	-11.0065
▁카톡할	-11.0066
▁후련해	-11.0067
이야기	-11.007
었지	-11.0071
▁수상한	-11.0072
▁알게되면	-11.0072
▁마라	-11.0072
▁궁금해하지	-11.0074
▁남았어	-11.0075
▁다가가야	-11.0075
▁열까지	-11.0075
▁골랐	-11.0077
▁좋겠습니다	-11.008
나쁜건지	-11.0081
▁걸었어	-11.0082
▁이러고	-11.0083
▁날려	-11.0083
▁누락됐	-11.0084
▁받으셨	-11.0089
▁치우	-11.0089
▁썸타다	-11.0091
▁보기만	-11.0092
▁자라	-11.0092
▁마음가는	-11.0093
▁솔	-11.0094
▁생겼나봐	-11.0095
▁어이가	-11.01
▁거부	-11.0105
▁찾으	-11.011
▁받는다는	-11.0111
▁친구로서	-11.0114
▁충	-11.0115
▁싫어할까	-11.0118
▁탈출	-11.0118
▁틈	-11.0118
▁쏟아	-11.0118
▁적극적이	-11.0119
▁쪽	-11.0119
▁껴	-11.0121
값이	-11.0122
▁안할	-11.0123
감기	-11.0124
▁다되어가네	-11.0124
▁따르	-11.0125
▁가입	-11.0126
였던	-11.0127
▁걸리	-11.0133
▁자다	-11.0134
▁효도	-11.0134
▁저주	-11.0136
▁사귀는데	-11.0139
▁됐습니다	-11.0141
할지도	-11.0142
▁떨쳐	-11.0149
소음	-11.015
▁줄일	-11.0153
▁포기하지	-11.0154
▁귀찮게	-11.0155
▁집착하지	-11.0155
▁먹나	-11.0157
▁청춘이	-11.0158
▁답답해서	-11.0159
침해	-11.0159
▁철벽이	-11.016
▁질려하	-11.0162
감한	-11.0163
▁시간이었	-11.0168
▁가시	-11.0171
▁준다	-11.0172
▁채워보세요	-11.0172
▁남자와	-11.0174
▁비우	-11.0175
▁불금이	-11.0183
▁치열해	-11.0184
올려봐	-11.0189
▁될수	-11.0192
▁허락하	-11.0192
▁꼼꼼한	-11.0198
▁공개해	-11.0199
▁대리	-11.0201
▁돌아오는	-11.0202
▁일이었	-11.0205
는것	-11.0206
▁버려야지	-11.0209
▁나으	-11.0216
▁정확한	-11.0219
▁넘어	-11.0225
▁놀러갈	-11.0228
고파	-11.0237
▁오해하	-11.0245
▁처음이라	-11.0249
▁나름	-11.025
▁소원이	-11.025
주지	-11.0251
▁빈	-11.0258
▁팩	-11.026
▁볶	-11.026
▁잼	-11.026
끔하	-11.0261
▁깨질	-11.0266
▁내면	-11.0268
▁돌아오기	-11.0269
▁안갈	-11.0274
▁전까지	-11.0278
▁받아들여지	-11.0279
▁웃기	-11.0279
▁긍정적이	-11.0292
▁나들이	-11.0295
▁됐나	-11.0298
▁취향이	-11.0301
▁농구하	-11.0301
▁힘든가	-11.0303
▁소식에	-11.0306
▁못할까	-11.0314
▁마무리하	-11.0316
▁애인이	-11.032
▁내려놓기	-11.0321
▁연락하기	-11.0324
▁회	-11.0329
▁감정들	-11.0331
▁안나나	-11.0332
▁이대로	-11.0333
▁되려	-11.0333
▁미루	-11.0343
▁지워지	-11.0343
해본	-11.0345
▁생각일까	-11.0345
연애였는데	-11.0346
▁놓는	-11.0346
▁대단해	-11.0347
▁흐르면	-11.0352
▁출근하	-11.0352
▁아련하	-11.0354
▁표현에	-11.0365
▁해줬으면	-11.0367
▁지나고	-11.0367
하는지	-11.0368
일뿐	-11.0381
▁그러지	-11.0386
▁막막하	-11.0391
▁의지하	-11.0392
▁갑	-11.0392
▁나타났	-11.0393
▁사람이었어	-11.0394
▁무너지	-11.0403
▁뒀	-11.0404
▁쪄	-11.0404
▁심하네	-11.0406
거든	-11.0408
하시는	-11.0411
▁틀어	-11.0418
심이	-11.0418
▁백업해	-11.0418
▁데서	-11.0424
▁에이	-11.0433
▁갔는	-11.0439
▁칼로	-11.0441
▁기다려보	-11.0445
▁사람하고	-11.0449
상일	-11.0451
▁만들죠	-11.0453
▁무서	-11.0464
▁기적	-11.0471
▁할인	-11.0471
▁상처받는	-11.0487
▁연애인	-11.0489
▁사귄지	-11.049
화가나네	-11.0492
▁생각하면서	-11.0502
▁딸까	-11.0503
겠	-11.0508
▁머	-11.0521
싶은데	-11.0525
▁뜻밖	-11.0532
▁끝이났	-11.0538
▁동기	-11.054
▁이야기할	-11.0543
▁출	-11.0551
▁불안한	-11.0558
▁오나봐	-11.056
했었는데	-11.0566
순수한	-11.0571
▁줘야	-11.0576
▁짝사랑에서	-11.0584
▁변해가는	-11.0594
▁숨기	-11.0597
▁비만	-11.0605
▁그러다	-11.0607
▁아무일	-11.0609
▁든다	-11.062
▁멍청	-11.0628
▁바람난	-11.0633
▁병신	-11.0637
▁멍청한	-11.0646
▁타면	-11.0646
▁일과	-11.0646
▁썸인가요	-11.0646
▁지우는	-11.0658
▁아파하	-11.0661
오지마	-11.0661
식을	-11.0664
▁태도에	-11.0664
▁좋아졌	-11.0675
아는데도	-11.0678
▁역	-11.0681
였는	-11.0683
▁저기	-11.0692
▁머리로	-11.0702
▁해보면	-11.0704
▁빛	-11.0704
서서	-11.0707
여친이	-11.071
▁어떻해	-11.0713
직하	-11.0717
▁이야기하고	-11.0718
▁해야하는	-11.0721
▁잊지말	-11.0723
▁기다리다	-11.0724
길래	-11.0725
이냐	-11.0726
▁알았다	-11.0729
▁장기	-11.0739
▁붙는	-11.0748
▁너랑	-11.0759
▁만들까	-11.0763
▁일인가봐	-11.0778
▁말해야	-11.079
▁후련하네	-11.08
▁급해	-11.0805
▁각	-11.0807
▁났어	-11.0809
했다면	-11.0815
▁너무하네	-11.0823
기한	-11.0823
▁되었는	-11.0837
▁부여하	-11.0838
▁그랬을	-11.0845
나는	-11.0848
▁무지	-11.0851
▁날이네	-11.0851
▁상관이	-11.0852
▁극	-11.0853
▁변하니	-11.0859
▁없다는	-11.0871
▁했는	-11.0879
▁중독인	-11.0885
▁그에게	-11.0887
▁챙겨줘	-11.0896
해버렸네	-11.0896
▁힘든거	-11.0902
마트	-11.0912
▁이상한가	-11.0913
▁부족	-11.0927
▁많나	-11.0931
▁연애중	-11.0933
하시겠	-11.0941
▁휴학	-11.0941
왔습니다	-11.0943
▁피나	-11.0948
▁가슴은	-11.0956
▁사랑했어	-11.096
사드리	-11.0961
▁복전	-11.098
▁입어보	-11.0985
▁위험할	-11.0988
▁이어지	-11.0991
▁부족하	-11.0999
▁접어두는	-11.1009
▁자신다	-11.1011
▁쓸쓸하	-11.1015
받았다	-11.1021
▁죽고싶	-11.1024
▁찾아왔	-11.1026
▁익숙함이	-11.1043
안됩니다	-11.1044
▁티나	-11.1048
들면	-11.1061
▁넘은	-11.1066
▁끝냈	-11.1076
한다는	-11.1078
다는것	-11.1079
▁이혼이	-11.1082
▁거지같	-11.1089
▁정리했	-11.1092
▁서점에	-11.1097
▁받아줄	-11.1104
▁나오겠	-11.1118
년하고	-11.1122
말걸	-11.1134
▁지속해	-11.1139
시도	-11.1144
▁줬으면	-11.1146
었지만	-11.1149
돼야	-11.1158
▁갠톡	-11.1159
▁숙	-11.1166
▁탈이	-11.1169
▁뭐지	-11.1177
▁준비하느	-11.1177
▁욕을	-11.1183
난거	-11.1184
나보네	-11.1185
하냐	-11.1188
다니기	-11.1189
차이	-11.1235
▁작	-11.1238
물이	-11.1245
하는걸	-11.1247
▁시간이었을	-11.1249
주려고	-11.1255
▁기다리게	-11.1279
아온	-11.1288
▁검색해	-11.1293
▁반복하	-11.1351
간의	-11.1367
난다면	-11.1385
▁추억들	-11.139
▁보였	-11.1393
해줬	-11.1398
▁애인	-11.1403
▁오락가락하	-11.1435
▁그리운가	-11.146
▁준비해	-11.1467
▁하니	-11.1469
▁만족하	-11.1503
정도	-11.1504
▁싸우기	-11.1506
막히는	-11.1512
버렸습니다	-11.1529
▁웃어주	-11.1537
▁자리에	-11.1539
▁살만	-11.1543
▁집앞	-11.1558
▁붙잡으	-11.157
졌다	-11.1572
▁만나야	-11.1584
▁울면	-11.1589
때리는	-11.1594
▁개인적	-11.1607
▁본다	-11.164
▁없어졌	-11.1647
▁남나	-11.1647
한걸까	-11.1655
다녀야	-11.1663
▁아니었	-11.1671
보내는	-11.1693
▁고민이네	-11.1708
▁임	-11.171
▁실망하	-11.1725
▁보자	-11.173
▁해결해	-11.1732
▁날이었	-11.1745
▁거래	-11.1751
하라	-11.1762
▁얼어	-11.1765
장이	-11.177
▁도와드릴	-11.1787
▁안된	-11.1789
하지마	-11.1802
있어요	-11.1806
들지	-11.1813
올랐다	-11.1815
▁마주	-11.1816
▁즐겨보	-11.1822
기에	-11.1822
▁잘되고	-11.1874
▁안하면	-11.1887
어지고	-11.1889
가왔습니다	-11.1892
▁부족했	-11.1903
는걸	-11.1913
▁박	-11.1916
버렸네	-11.193
겼는데	-11.1949
있나	-11.1984
▁다르니	-11.202
▁할지	-11.2032
▁신고	-11.2062
▁아파서	-11.2096
▁노력해야	-11.2102
▁건강하	-11.2118
▁깎아	-11.2129
▁헤어지자네	-11.2147
▁나라	-11.2167
▁라는	-11.2178
▁저만	-11.2179
스러울	-11.2182
▁극복해	-11.2183
▁내년	-11.2201
▁왔	-11.2212
▁기억나	-11.2214
▁안풀	-11.2217
▁할때	-11.222
학원	-11.2229
▁뜻하	-11.2249
▁안오	-11.2258
▁아픈가	-11.2277
▁궁금하다	-11.2287
▁알바하면	-11.231
친구와	-11.231
▁과에	-11.2322
일지	-11.2329
▁꿨는	-11.2337
▁상처받았	-11.2344
▁괜찮아졌다	-11.2363
▁잊지마	-11.2368
해야하나	-11.2375
▁즐겨	-11.2389
하다고	-11.2442
▁경험해	-11.2452
졌는데	-11.2461
▁비가오	-11.2468
▁하려	-11.2473
▁적을	-11.2479
▁못나	-11.2508
▁잊으려	-11.2512
▁제자리걸음	-11.2514
이상	-11.252
▁길에	-11.2533
▁현실이	-11.2538
랐나봐	-11.2541
▁속이는	-11.2548
정리를	-11.2575
▁내릴	-11.2579
▁인정해야	-11.2586
워보	-11.2589
▁두려운	-11.2596
▁오늘로	-11.2603
장소에	-11.2611
▁도와주세	-11.2615
▁이별할	-11.2615
▁이별이에요	-11.2616
▁아들	-11.2651
다보니	-11.2653
▁달라졌	-11.2681
법이	-11.269
보네	-11.269
갔네	-11.2699
되었길	-11.2703
▁필요해보	-11.2704
▁사랑해줘	-11.272
감각	-11.273
받아	-11.2731
▁이별했	-11.2739
▁데이트하기	-11.2744
▁계절	-11.2748
줬	-11.2748
▁관리해	-11.2754
인다	-11.2767
▁집앞에	-11.2778
하고있어	-11.2805
▁연애였	-11.2815
▁한데	-11.2837
▁어렵겠지	-11.2845
▁순수	-11.2847
▁교회에	-11.2879
▁바쁘네	-11.288
▁간단	-11.2898
해주	-11.29
▁잘하	-11.2907
▁잊어볼	-11.2912
▁미워해	-11.2925
▁공허	-11.2933
▁아프겠	-11.2949
▁뭐였	-11.2951
▁입는	-11.3023
▁헬스장	-11.3036
▁같았	-11.304
▁좋았겠	-11.304
▁익숙해	-11.3051
빠질	-11.306
▁보름달	-11.3064
▁다니면	-11.3129
▁안정	-11.3132
▁비워보	-11.3168
▁물리	-11.3177
다는데	-11.318
▁반응해	-11.3214
▁착해	-11.3217
감이	-11.3218
▁풀어보	-11.3221
당하기	-11.3222
▁원하	-11.3235
친구가	-11.3237
▁절친	-11.3241
▁사이라	-11.3248
▁날까	-11.327
다네	-11.3273
해봐	-11.3291
▁있었지	-11.3316
▁쓸쓸	-11.3317
▁정상이	-11.332
시는	-11.3331
▁힘내라	-11.3332
▁만족해	-11.3341
안나	-11.3369
▁복전하	-11.3377
▁많겠	-11.3377
▁공시생	-11.3395
못	-11.3395
한가봅니다	-11.3402
를까	-11.3463
▁로맨틱해	-11.3498
▁알아줄	-11.3498
생인데	-11.3508
▁준비하면	-11.3512
혔어	-11.3512
▁서점	-11.3534
▁잔소리해	-11.3541
▁어디가	-11.356
▁나날	-11.359
▁바라보	-11.3603
▁부여	-11.3607
달렸나봐	-11.364
붙	-11.3664
▁유지	-11.3668
보이	-11.3697
▁가까워	-11.3706
러운	-11.3725
▁고백이	-11.3731
▁익숙해지는	-11.3734
▁오겠	-11.3739
▁연락올	-11.3743
졌나봐	-11.3746
되기	-11.3754
▁힘겨	-11.3755
그런건가	-11.3757
좋아하는	-11.3773
▁넘었	-11.3796
▁척하	-11.3803
어진다	-11.3807
여의	-11.3815
▁때문	-11.3818
담하	-11.3835
▁그리	-11.389
▁브	-11.3891
▁말라	-11.3901
▁사랑만	-11.3912
▁밥이	-11.3915
자리	-11.3946
▁답인	-11.3951
이라서	-11.3964
일이네	-11.3965
워야	-11.3978
▁들어오	-11.4009
었나	-11.4026
▁성숙	-11.4027
너	-11.4029
▁선물해주	-11.403
나긴	-11.4039
▁조심해야	-11.404
▁잊어버리는	-11.4043
이겠죠	-11.4045
▁생각났	-11.4058
먹으	-11.4069
어지지	-11.4079
▁것일	-11.41
▁돌보	-11.412
▁걸어보	-11.4137
▁기억들	-11.4146
같지	-11.4165
▁치맥	-11.4166
봐야	-11.4173
야해	-11.4181
이너	-11.4207
▁약인	-11.422
▁허무하	-11.4234
간대	-11.4234
시켜야	-11.4261
▁운명적	-11.4271
했을	-11.4272
▁연애할	-11.4287
▁구별해	-11.4288
어져	-11.4304
달래	-11.4306
민	-11.4307
▁행복했	-11.4316
증이	-11.4322
우선이	-11.4323
▁질거	-11.433
▁높이	-11.4333
손잡	-11.4334
▁못잊는	-11.4335
표	-11.4338
▁그만둬	-11.434
▁싫어해	-11.434
하우스	-11.4364
블	-11.4366
▁갖는	-11.4375
타는	-11.4379
▁변해가	-11.4394
웃	-11.44
▁싫어하나	-11.4401
오니까	-11.4404
거겠지	-11.4409
▁모르니	-11.4411
입	-11.4412
▁차이일	-11.4417
기름	-11.4418
▁없다가	-11.442
끝이네	-11.4422
폭풍	-11.4432
▁예뻐해	-11.4435
▁행복하지	-11.4442
▁꼼꼼	-11.4444
▁전하면	-11.4446
집에	-11.445
있다	-11.4451
▁그나	-11.4454
▁생각했	-11.4455
끝	-11.4471
너무	-11.4471
망이지	-11.4473
▁되시	-11.4474
하지않	-11.4479
▁시간인가	-11.4479
▁애석	-11.4481
▁불금	-11.4484
▁보내보	-11.4485
쓰는	-11.449
▁이어나가	-11.4496
미	-11.4505
▁다했다	-11.4507
야할지	-11.4511
낫네	-11.4515
시키	-11.4516
세포	-11.4516
쪽	-11.4519
있겠죠	-11.452
축	-11.4522
▁털어	-11.4525
받은	-11.4526
업	-11.4528
있네	-11.4528
패	-11.4529
촬영	-11.453
빙	-11.453
키스	-11.4534
▁봐달라	-11.4536
▁귀엽다	-11.4537
방향	-11.4538
아휴	-11.4539
견	-11.4545
끌	-11.4546
▁하고싶은	-11.4552
껴	-11.4556
▁이해못	-11.4559
속	-11.4559
없네	-11.4561
충	-11.4562
계	-11.4564
쏟아	-11.4566
틈	-11.4566
솔	-11.4566
골	-11.4566
좋아	-11.4566
탈출	-11.4567
따르	-11.4568
늘	-11.4568
열	-11.4571
잘라	-11.4574
버려야지	-11.4577
태	-11.4578
센	-11.4578
해하지	-11.4579
액	-11.458
동생한테	-11.4581
따	-11.4581
미팅	-11.4582
됐습니다	-11.4582
꿨	-11.4582
학생	-11.4585
세우	-11.4586
백한다	-11.4588
떡	-11.4588
퍼	-11.4589
▁매달	-11.4589
케이스	-11.459
나쁘	-11.459
먼	-11.459
쓸	-11.4591
소모	-11.4591
놓으	-11.4591
▁생각할수	-11.4594
자리에	-11.4595
찌	-11.4598
패턴	-11.4599
땅	-11.4599
짠	-11.4599
밀어	-11.46
자격증	-11.4602
눈	-11.4603
육아	-11.4603
잘	-11.4607
코스	-11.4607
싸	-11.4607
뿌	-11.4607
▁직업	-11.4607
철	-11.4608
했습니다	-11.4608
사귄	-11.4609
조절	-11.461
빼	-11.4611
빌려	-11.4611
노래방	-11.4612
쉬	-11.4613
쇼핑	-11.4614
경우	-11.4614
시작이	-11.4615
안녕	-11.4615
맨날	-11.4615
부려	-11.4616
6	-11.4617
▁느낀	-11.4617
눈물	-11.4617
벌	-11.4618
딱	-11.4618
좋을까	-11.4618
갖	-11.4618
많은	-11.4618
주차	-11.4618
늦	-11.4618
무슨	-11.4619
큰	-11.4619
오늘	-11.4619
싫어	-11.4619
아파	-11.462
보낼	-11.4621
미리	-11.4621
사정	-11.4621
아플	-11.4622
안돼	-11.4625
그런	-11.463
웃으	-11.4631
나가고	-11.4632
단점	-11.4633
▁멀어	-11.4634
초대	-11.4635
마시	-11.4635
됐으면	-11.4638
▁약해	-11.4638
여자친구	-11.4639
문자	-11.464
▁본받	-11.4645
▁잘생겼	-11.4646
▁현금	-11.4647
감정	-11.4654
차단	-11.4654
났네	-11.4662
자랑	-11.4668
▁만들었	-11.4669
젠	-11.4672
고프다	-11.4675
나올	-11.4675
들었어	-11.4683
그치	-11.4686
전과	-11.4687
▁나오는	-11.4687
전이	-11.4689
▁깨달	-11.4693
인사	-11.4694
어버리	-11.4704
고민	-11.471
▁말아보	-11.4713
온대	-11.4718
보이는	-11.4733
문제	-11.4734
심하네	-11.4735
루	-11.4735
가입	-11.4741
▁잊혀져	-11.4746
▁잃	-11.4754
안됐네	-11.476
▁수학여행	-11.476
휴	-11.4762
▁불타	-11.4763
▁정리해야	-11.4769
▁구멍	-11.4773
▁익숙	-11.4773
할수	-11.4774
▁도망	-11.4776
스타일이	-11.4776
▁안맞	-11.4776
▁늙어	-11.4779
▁사람이었	-11.4781
▁잊어가	-11.4784
으려고	-11.4789
▁감정적	-11.479
▁잠겼	-11.4802
▁부질없	-11.4802
▁달려	-11.4804
▁낙	-11.4807
▁성덕	-11.481
▁쟁취하	-11.4811
났는데	-11.4811
▁아쉬움	-11.4812
▁질문	-11.4812
불가	-11.4812
▁세월	-11.4814
향이	-11.4815
맥	-11.4815
▁꿈이었	-11.4823
▁심심하다	-11.4824
▁듣고싶	-11.4827
▁추스	-11.4827
▁머릿	-11.483
▁낫겠	-11.4842
쁜	-11.4845
▁괴	-11.4846
십	-11.4847
심리	-11.4849
▁여행가고	-11.4851
고픈	-11.4852
혼전	-11.4856
▁표현할	-11.4856
닫고	-11.4863
▁어쩔수	-11.4869
람을	-11.4872
틀어	-11.488
환	-11.4885
기지	-11.4887
▁권	-11.4887
▁스타	-11.489
▁늙	-11.4892
▁무너졌	-11.4893
귄	-11.4894
▁우정이	-11.4897
▁밤이	-11.4897
▁자유로워	-11.4899
킨	-11.4899
먹을	-11.4899
습기	-11.49
▁불효	-11.49
릴까	-11.4901
▁뒤숭숭	-11.4901
생에	-11.4902
로우니	-11.4902
▁끓	-11.4902
험해	-11.4902
▁억	-11.4903
▁존	-11.4903
첨	-11.4903
끗	-11.4903
쩌	-11.4903
쑥	-11.4903
▁밝	-11.4903
▁대충	-11.4904
앗	-11.4904
▁희생	-11.4904
뚝	-11.4904
▁컴	-11.4904
텔	-11.4904
탄	-11.4904
▁깔	-11.4905
찢	-11.4905
▁비행기	-11.4905
x	-11.4905
▁금사빠	-11.4905
▁황당하	-11.4905
▁흐음	-11.4905
깅	-11.4905
댓	-11.4905
뚱	-11.4905
찹	-11.4905
▁마찬가지	-11.4905
▁소극적	-11.4905
▁쥐꼬리	-11.4905
▁텁텁	-11.4905
▁폰겜	-11.4905
▁풍부	-11.4905
▁헌팅	-11.4905
d	-11.4905
go	-11.4905
o	-11.4905
p	-11.4905
▁s	-11.4905
▁감정컨트롤	-11.4905
▁개당황	-11.4905
▁거리두기	-11.4905
▁건강검진	-11.4905
▁걷는	-11.4905
▁고구마	-11.4905
▁곱씹	-11.4905
▁관절염	-11.4905
▁광탈	-11.4905
▁괘씸하	-11.4905
▁교직이수	-11.4905
▁그리웠나	-11.4905
▁기획사	-11.4905
▁김치볶음밥	-11.4905
▁깐깐	-11.4905
▁깜깜	-11.4905
▁나쁨	-11.4905
▁낙엽	-11.4905
▁날카로워	-11.4905
▁노처녀	-11.4905
▁논문	-11.4905
▁답변	-11.4905
▁대부분	-11.4905
▁돌싱	-11.4905
▁돌아섰	-11.4905
▁동문서답	-11.4905
▁두근두근	-11.4905
▁들이댔	-11.4905
▁들켰	-11.4905
▁렌즈	-11.4905
▁멀미	-11.4905
▁모태솔로	-11.4905
▁못믿겠	-11.4905
▁무뚝뚝해	-11.4905
▁밉다	-11.4905
▁부딪히	-11.4905
▁불륜	-11.4905
▁블랙박스	-11.4905
▁빡빡	-11.4905
▁뽀뽀	-11.4905
▁뽑아	-11.4905
▁삐져	-11.4905
▁삼가	-11.4905
▁삼주	-11.4905
▁상견례	-11.4905
▁샐러드	-11.4905
▁서툴어	-11.4905
▁섣부르	-11.4905
▁소풍	-11.4905
▁숏컷	-11.4905
▁스몰웨딩	-11.4905
▁스킨쉽	-11.4905
▁실험실	-11.4905
▁싶었는데	-11.4905
▁쌓이	-11.4905
▁쓰디	-11.4905
▁쓰여	-11.4905
▁씻기	-11.4905
▁안돌아오나	-11.4905
▁애매모호	-11.4905
▁애키우	-11.4905
▁예식장	-11.4905
▁왔다갔다	-11.4905
▁웨딩	-11.4905
▁웨딩드레스	-11.4905
▁의사표시	-11.4905
▁익숨함	-11.4905
▁잤나	-11.4905
▁재택근무	-11.4905
▁전기장판	-11.4905
▁조명빨	-11.4905
▁주저리주저리	-11.4905
▁죽음	-11.4905
▁중소기업	-11.4905
▁지겹	-11.4905
▁짬뽕	-11.4905
▁짱나	-11.4905
▁찔러	-11.4905
▁찾아갔습니다	-11.4905
▁처량하	-11.4905
▁춘곤증인가	-11.4905
▁취뽀	-11.4905
▁카풀	-11.4905
▁컨트롤	-11.4905
▁컸으면	-11.4905
▁쿨하	-11.4905
▁클스마스	-11.4905
▁탄생	-11.4905
▁탄탄	-11.4905
▁편식	-11.4905
▁포근포근	-11.4905
▁풀었	-11.4905
▁피어싱	-11.4905
▁햇볕	-11.4905
▁험담	-11.4905
▁헤헤	-11.4905
▁호박씨	-11.4905
▁화풀이	-11.4905
▁황당해	-11.4905
걍	-11.4905
겼다	-11.4905
균	-11.4905
귤	-11.4905
깃	-11.4905
꽂	-11.4905
꿩	-11.4905
넥	-11.4905
넹	-11.4905
녔	-11.4905
뇨	-11.4905
눴	-11.4905
닭	-11.4905
덩	-11.4905
뒹	-11.4905
랭	-11.4905
렉	-11.4905
룰	-11.4905
룸	-11.4905
룽	-11.4905
릭	-11.4905
맹	-11.4905
메이크업	-11.4905
밭	-11.4905
버렸나	-11.4905
벨	-11.4905
붓	-11.4905
뷔	-11.4905
빽	-11.4905
뻤	-11.4905
뽀송	-11.4905
뿅	-11.4905
삔	-11.4905
샘	-11.4905
섹	-11.4905
쇠	-11.4905
쑤	-11.4905
쓰기	-11.4905
쓰담	-11.4905
씰룩	-11.4905
왼	-11.4905
웽	-11.4905
윙	-11.4905
잊기싫은	-11.4905
젝	-11.4905
줍	-11.4905
쥬	-11.4905
즙	-11.4905
징글	-11.4905
짤	-11.4905
짰다	-11.4905
쨌	-11.4905
찡	-11.4905
층	-11.4905
컷	-11.4905
탐	-11.4905
템	-11.4905
흡	-11.4905
▁가르쳐	-11.4905
▁반배정	-11.4905
▁식욕폭발	-11.4905
▁기뻐해	-11.4905
▁데려달라고	-11.4905
▁드러내	-11.4905
▁못받	-11.4905
▁변했	-11.4905
▁부딪혀	-11.4905
▁북받쳐	-11.4905
▁사투리	-11.4905
▁쌍커풀	-11.4905
▁쌓아	-11.4905
▁정동진	-11.4905
▁젖어	-11.4905
▁죄송해	-11.4905
▁주눅들	-11.4905
▁허전해	-11.4905
닦	-11.4905
챘	-11.4905
▁서먹해	-11.4905
▁씨앗	-11.4905
▁조교하면	-11.4905
▁중간중간	-11.4905
▁진부한	-11.4905
권이	-11.4905
섯	-11.4905
솜	-11.4905
웁	-11.4905
▁거슬려	-11.4905
▁댄디	-11.4905
▁댓글	-11.4905
▁메시지	-11.4905
▁황사	-11.4905
▁괴로웠을	-11.4905
▁근황	-11.4905
▁배부르	-11.4905
▁존경	-11.4905
▁콕콕	-11.4905
넛	-11.4905
띰	-11.4905
뮤	-11.4905
▁술주정	-11.4905
▁유세부	-11.4905
▁입소문	-11.4905
▁허무해	-11.4905
▁말았네	-11.4905
▁폭식	-11.4905
▁친절하	-11.4905
▁넘어질뻔	-11.4905
▁섬유	-11.4905
▁식도염	-11.4905
▁이별하신	-11.4905
조언부탁	-11.4905
▁감미로	-11.4905
▁견딜	-11.4905
으셨	-11.4905
▁겉모습	-11.4905
▁엊그	-11.4905
▁지옥이네	-11.4905
▁태몽	-11.4905
▁처방	-11.4905
▁헤어졋	-11.4905
▁환상	-11.4905
▁건물주	-11.4905
▁노답이	-11.4905
▁쓸모	-11.4905
▁체육	-11.4905
▁애써봐	-11.4905
▁으악	-11.4905
▁양면과	-11.4905
▁고시생	-11.4905
▁국경	-11.4905
▁쪽팔	-11.4905
▁초조해	-11.4905
▁문콕	-11.4905
▁해결방안	-11.4905
▁대학교	-11.4905
▁타입인	-11.4905
▁동아리에	-11.4905
▁소홀	-11.4905
▁단톡에	-11.4905
▁호텔	-11.4905
▁시누	-11.4905
▁텅비	-11.4905
▁답답하신가	-11.4905
▁가라앉혀	-11.4905
▁머물	-11.4905
▁봄방학	-11.4905
▁퇴사	-11.4905
걸레질	-11.4906
▁어울릴	-11.4906
▁발등	-11.4906
▁매순간	-11.4906
▁팔뚝	-11.4906
▁핸드	-11.4906
▁다가온	-11.4906
▁잠식시키	-11.4906
▁팔찌	-11.4906
▁선연하	-11.4906
▁슈퍼문이	-11.4906
▁문화센터	-11.4906
▁내키는	-11.4906
▁비교돼	-11.4906
▁떠올라	-11.4906
▁갱신	-11.4906
▁출국	-11.4906
투덜	-11.4906
▁일반적이	-11.4906
▁놀이터에	-11.4906
▁스킨	-11.4906
▁독학하	-11.4906
▁뜬금	-11.4906
▁대리님	-11.4906
고있었는데	-11.4906
순위	-11.4906
▁뻔뻔	-11.4906
▁경제력	-11.4906
▁부작용	-11.4906
▁그만할래	-11.4906
▁담담하	-11.4906
▁헤어졌을때	-11.4906
▁감추는	-11.4906
▁강해지	-11.4906
▁가운데	-11.4906
▁화났	-11.4906
▁눌러	-11.4906
▁무뎌져	-11.4906
▁소액	-11.4906
▁술기운	-11.4906
▁도자기	-11.4906
▁숨쉬	-11.4906
▁비참하	-11.4906
▁짜증난다	-11.4906
국물	-11.4906
▁폭식증	-11.4906
▁알뜰	-11.4906
▁야구장	-11.4906
▁작별	-11.4907
▁복합적	-11.4907
▁마음가짐	-11.4907
▁신입	-11.4907
▁변덕스러운	-11.4907
▁불타오르	-11.4907
▁잊었다	-11.4907
▁구분짓	-11.4907
▁주저리	-11.4907
▁돌아온	-11.4907
▁양다리	-11.4907
▁친추	-11.4907
▁털어내	-11.4907
▁후덜덜	-11.4907
▁동성애	-11.4907
▁짝사랑이었네	-11.4907
▁무뎌진	-11.4907
▁응원해주면	-11.4907
▁지워버리	-11.4907
달반	-11.4908
▁시절	-11.4908
▁꽃바구니	-11.4908
▁떠나갔네	-11.4908
▁비왔으면	-11.4908
▁심각	-11.4908
▁인형뽑기	-11.4908
될것같	-11.4908
▁잡담	-11.4908
▁청강	-11.4908
▁후련해졌	-11.4908
▁직감	-11.4908
▁변명거리	-11.4908
▁전남자친구	-11.4908
▁면세	-11.4908
▁무색해지네	-11.4909
▁씌었나봐	-11.4909
쳐올	-11.4909
▁성급	-11.4909
▁잊어버려	-11.4909
▁퇴근시간	-11.4909
▁먹먹	-11.4909
▁먹먹함	-11.4909
▁무덤덤한데	-11.4909
▁기계	-11.4909
▁끊었으면	-11.4909
▁부담된다	-11.4909
▁데려다줬는데	-11.4909
▁명언	-11.4909
▁내려놔	-11.4909
▁기름값	-11.4909
합시다	-11.491
▁되어갑니다	-11.491
▁여행지에서	-11.491
▁확실해졌	-11.491
▁대충했	-11.491
▁사치인	-11.491
▁외박	-11.491
▁일어난	-11.491
▁촉이	-11.491
▁불효자	-11.491
▁산이네	-11.491
▁영역	-11.491
▁이쁘	-11.491
▁영원했으면	-11.491
▁이용당	-11.491
▁욕먹	-11.491
▁바래다	-11.4911
▁잔인하네	-11.4911
▁씁쓸하네	-11.4911
찬하	-11.4911
주정도	-11.4911
▁덤덤하게	-11.4911
▁사갈까	-11.4911
▁난처	-11.4911
▁진담	-11.4911
▁남은걸까	-11.4911
▁구걸하	-11.4911
▁해주기	-11.4911
▁자제하는	-11.4911
▁취급	-11.4911
▁깨졌는데	-11.4912
▁잊고싶다	-11.4912
▁장난친	-11.4912
▁바보짓	-11.4912
▁냉정해	-11.4912
▁끝냈습니다	-11.4912
▁끝인거겠죠	-11.4912
▁잊어야한다는	-11.4912
▁가혹	-11.4912
▁태어났	-11.4912
▁따위	-11.4912
▁불러준	-11.4913
▁새롭	-11.4913
근한	-11.4913
▁오늘밤	-11.4913
잡히네	-11.4913
▁공허하네	-11.4913
▁지침	-11.4913
▁위안	-11.4913
▁써야	-11.4913
▁솔직했으면	-11.4913
▁냉정할	-11.4913
▁쳐다보	-11.4914
▁꼬셔	-11.4914
▁괴로운	-11.4914
▁예전처럼	-11.4914
바구니	-11.4914
▁학교생활	-11.4914
▁절망적	-11.4914
▁어디있을까	-11.4914
▁서글	-11.4914
▁초초	-11.4914
환해	-11.4915
▁신기해	-11.4915
▁긴장돼	-11.4915
▁두분이	-11.4915
▁해낸	-11.4916
▁결재	-11.4916
▁서운한거	-11.4916
▁여부	-11.4916
나온	-11.4916
▁주름	-11.4916
▁당사자만	-11.4916
▁휴우	-11.4916
▁회의감	-11.4916
▁잠들기	-11.4916
▁괴롭혀	-11.4916
▁해결해줄	-11.4917
▁심란	-11.4917
▁겁이	-11.4917
▁태어났으면	-11.4917
▁외로울	-11.4917
▁비례	-11.4918
▁떠났습니다	-11.4918
▁나날이었	-11.4918
▁예민해져	-11.4918
▁달라질까	-11.4919
근무	-11.4919
▁조심스	-11.4919
▁버려달라고	-11.4919
▁하품	-11.4919
▁놓쳤다	-11.492
집에서	-11.492
▁레고	-11.492
▁간지러	-11.492
우니	-11.492
▁임신	-11.492
▁냄새날	-11.4921
▁회복되	-11.4921
▁골인	-11.4921
▁연애끝	-11.4921
추세	-11.4921
▁번복	-11.4921
▁사겼는데	-11.4921
▁걸어다니	-11.4921
▁또라이	-11.4921
킬	-11.4922
▁부담돼	-11.4922
▁어째서	-11.4922
▁한쪽	-11.4922
▁지독	-11.4922
▁지쳐가네	-11.4923
▁심정	-11.4923
▁받아드리	-11.4924
▁괜찮았는데	-11.4924
▁원두	-11.4924
▁식단	-11.4924
▁맞추려고	-11.4924
리마	-11.4924
▁정리되었길	-11.4924
▁돌아간	-11.4924
▁원하던	-11.4924
▁고백해도될까	-11.4924
▁비추	-11.4925
▁느끼나	-11.4925
▁돌아다니	-11.4925
▁받았습니다	-11.4925
▁열받아서	-11.4925
크림	-11.4925
▁들어줄래	-11.4926
정말끝이	-11.4926
▁만나지말	-11.4926
▁은퇴후	-11.4926
▁파마	-11.4927
▁잘해준	-11.4927
▁안되는건가	-11.4928
▁보름	-11.4928
년동	-11.4928
키니	-11.4928
▁정량	-11.4928
▁사랑했다는	-11.4929
▁소용	-11.4929
▁무뎌졌	-11.4929
▁방구	-11.493
▁겁이나	-11.493
▁인간적	-11.493
▁시켜줘	-11.493
▁다음날	-11.493
▁돌봐	-11.4931
▁보조	-11.4931
▁꺼질	-11.4932
▁순간들이	-11.4932
던곳	-11.4932
▁떨어진	-11.4932
▁담아	-11.4932
개월간의	-11.4932
▁과제	-11.4933
▁부담스러운데	-11.4933
▁힘든거네	-11.4933
▁아플까	-11.4934
▁몸매	-11.4934
뜨문	-11.4934
▁기부	-11.4934
▁먹여주나	-11.4934
▁시린	-11.4935
▁눈빛	-11.4936
▁결혼생활	-11.4936
▁파혼했어	-11.4937
▁무난	-11.4937
▁아물어	-11.4938
▁아이구	-11.4938
섭섭하	-11.4938
놓은	-11.4939
상해	-11.4939
▁붙어	-11.4939
▁울었어	-11.494
▁맞는거겠죠	-11.4941
▁메일	-11.4941
▁돌아올거	-11.4941
▁솔로야	-11.4941
상화	-11.4941
▁발렌타인데이인데	-11.4942
▁느끼게	-11.4943
미칠꺼	-11.4943
▁아른거	-11.4943
▁무서운건	-11.4943
▁결혼해야할까	-11.4943
▁무사	-11.4943
▁봐야	-11.4944
한거니	-11.4944
▁차리래	-11.4944
▁화살	-11.4945
▁책보	-11.4945
▁봐야겠다	-11.4945
▁설레발	-11.4946
▁기운내	-11.4947
▁잘생긴	-11.4947
▁완벽해지	-11.4948
▁줬다	-11.4948
개월동안	-11.4948
▁이번주	-11.4948
▁자유로워질까	-11.4948
▁헤어지신	-11.4949
▁온천	-11.4949
▁귀엽대	-11.4949
▁내려놓으면	-11.495
꾸룩	-11.495
▁엿같	-11.495
출할	-11.495
▁안열	-11.4951
▁순진	-11.4951
▁피해자	-11.4951
▁자식	-11.4951
▁이별이야기	-11.4951
▁헤어졌으니까	-11.4952
▁가게	-11.4952
▁너덜너덜해	-11.4952
▁괴로	-11.4953
▁미치네	-11.4955
비꼬는	-11.4956
관에	-11.4956
▁들었는데	-11.4957
▁같았나	-11.4958
▁올려봅니다	-11.4958
▁경과	-11.4958
▁입맛없	-11.4958
▁잘지내고있	-11.4959
▁취향인데	-11.4959
▁다시만나	-11.496
▁깨지고	-11.496
▁바본	-11.496
▁일주일째	-11.4962
▁구해야	-11.4963
▁솔로인	-11.4963
▁주체할	-11.4963
▁판단하지	-11.4964
▁사이트	-11.4965
▁사랑꾼	-11.4965
▁답일까	-11.4965
▁휘둘리	-11.4966
▁몇번	-11.4966
▁졸리	-11.4966
웠으면	-11.4967
▁물건	-11.4967
리스	-11.4967
▁좋아보여	-11.4969
▁긴여	-11.4969
▁먹방	-11.4969
▁같기도	-11.497
▁갈구	-11.4971
▁쉽지않	-11.4971
▁위대한	-11.4971
▁친해지	-11.4971
▁상메에	-11.4972
▁마디	-11.4972
▁대신	-11.4972
▁떨어졌	-11.4972
▁지웠	-11.4973
▁후회돼	-11.4974
▁동거중	-11.4975
▁생겼대	-11.4975
▁불만만	-11.4977
느껴진다	-11.4977
진행중	-11.4977
▁이겨내기	-11.4977
▁매달리	-11.4979
▁덜하	-11.4979
▁먹었나봐	-11.4979
▁못잊을	-11.4979
▁가출	-11.4979
▁제사	-11.498
▁써보	-11.498
▁마음이란게	-11.498
느리	-11.4981
▁쓰이네	-11.4982
스럽다	-11.4983
▁적응해	-11.4984
▁사줄까	-11.4984
▁현실에	-11.4985
직한	-11.4986
▁장수	-11.4987
어보	-11.4987
▁초라해	-11.4987
▁괜찮은거	-11.4987
▁모자	-11.4988
▁속지말	-11.4989
▁왜이러	-11.499
▁정치	-11.499
▁심심하다고	-11.4992
▁서운한	-11.4992
▁그런거지	-11.4993
▁남아있나	-11.4993
▁회의	-11.4994
▁연기	-11.4994
▁예를	-11.4994
▁흘렀는데	-11.4994
▁알아주	-11.4995
▁오후	-11.4995
▁없었나봐	-11.4996
▁말로만	-11.4997
▁생일이야	-11.4997
모닝	-11.4999
▁생활비	-11.4999
▁여기까지였나	-11.4999
▁모질	-11.5
▁찾아볼까	-11.5001
보내버렸네	-11.5001
▁모른	-11.5001
▁식상	-11.5002
▁이것만	-11.5004
▁자금	-11.5005
▁멋있어	-11.5006
액션	-11.5007
올릴까	-11.5009
▁이겨	-11.5009
▁소통	-11.5009
▁부질없는	-11.5009
▁기차	-11.501
개월이네	-11.501
▁다른반	-11.501
▁정상인가	-11.5011
▁한사람	-11.5011
간에	-11.5012
주룩	-11.5013
▁대상이	-11.5013
▁잠들	-11.5016
갔네요	-11.5018
▁대상	-11.5018
▁그대로인	-11.502
▁못하나봐	-11.502
▁상처들	-11.5022
▁원망스럽	-11.5023
▁짝사랑중	-11.5024
▁오늘부	-11.5024
▁초기	-11.5024
▁사실일	-11.5026
▁노래들	-11.5026
▁미안함	-11.5027
▁답장해	-11.5028
▁사랑이였	-11.503
▁집사	-11.503
▁모임이	-11.5033
소리	-11.5035
▁놀려	-11.5035
▁버리기	-11.5041
데이인데	-11.5041
▁그놈	-11.5041
▁질린다	-11.5043
▁찰랑	-11.5044
다시	-11.5045
▁수수한	-11.5045
▁꼈어	-11.5045
▁시켰	-11.5045
▁밑	-11.5045
▁썩	-11.5045
▁툭	-11.5045
▁콕	-11.5046
▁불쌍	-11.5046
▁한마디	-11.5046
▁홀	-11.5046
▁맞은	-11.5046
▁쓰다	-11.5046
▁가까워지	-11.5046
▁낀	-11.5046
▁부모	-11.5046
▁울컥	-11.5046
▁치킨	-11.5046
▁듬	-11.5046
▁쟁	-11.5047
▁푸석	-11.5047
▁안내는	-11.5048
▁당했습니다	-11.5048
초반	-11.5048
▁둬	-11.5048
참아왔	-11.5049
▁봤으면	-11.5049
▁찾아갔네	-11.505
▁구상	-11.505
▁주절	-11.505
▁꾸는데	-11.505
▁근질	-11.505
▁요구하	-11.5052
▁전화하기	-11.5053
▁대쉬해	-11.5054
▁되돌리	-11.5054
▁하루였	-11.5054
▁그런건지	-11.5055
▁약이라는	-11.5056
▁수순	-11.5056
▁안되겠지만	-11.5056
▁나올까	-11.506
▁이후	-11.5061
▁정리해야지	-11.5062
▁모양	-11.5062
▁아프니까	-11.5064
▁강요하는	-11.5067
거같은데	-11.5067
▁잊혀져가	-11.5067
▁무색하게	-11.5069
▁해야겠어	-11.507
▁자유시간	-11.507
▁거절인	-11.507
▁이마	-11.507
▁단어	-11.5074
▁끝이보	-11.5075
착이	-11.5076
아리	-11.5076
▁어쩌죠	-11.5079
▁있다는데	-11.5079
민가	-11.5079
▁힘드나	-11.508
화가	-11.508
마셔	-11.5086
▁사랑스럽	-11.5088
긴이별	-11.5089
지망	-11.509
주시	-11.5092
▁이루어질	-11.5093
실수했다	-11.5093
▁티비	-11.5093
▁양심	-11.5094
▁필요없어	-11.5095
▁감기약	-11.5098
▁그분과	-11.5099
▁연애하다	-11.5101
라구	-11.5103
후폭풍	-11.5106
▁없었어	-11.5107
▁생각했을	-11.5109
▁공감되	-11.5115
어진	-11.5116
▁끝이라고	-11.5116
할꺼야	-11.5117
▁멀어진다는	-11.512
▁그렇겠지	-11.5122
▁나이먹	-11.5122
▁살릴	-11.5123
▁못내는	-11.5125
▁아끼는	-11.5126
▁사줄	-11.5129
▁훈훈하	-11.5129
▁사귀면서	-11.513
▁뭘해도	-11.5132
▁다가가기	-11.5133
▁감수	-11.5133
▁감당이	-11.5135
▁필요할까	-11.5136
▁구질	-11.5138
▁잘했다	-11.5142
▁오르고	-11.5142
▁받았나	-11.5142
▁장난치	-11.5144
고쳤	-11.5145
▁힘들줄	-11.5153
▁말했으면	-11.5154
▁놀라	-11.5155
▁날에	-11.5156
▁미쳤	-11.5161
▁사람이네	-11.5161
▁이별할때	-11.5163
▁구하는	-11.5163
서점에	-11.5165
▁온다면	-11.5167
이였어	-11.517
▁궁금한게있	-11.5172
▁지내는데	-11.5173
▁좋으면서	-11.5175
▁맘대로	-11.5183
▁차라	-11.5184
▁마주보	-11.5184
▁결혼하는	-11.5185
▁오긴	-11.5191
▁보드	-11.5193
▁설레게하	-11.5193
▁질리게	-11.5194
▁혼자라는	-11.5206
▁끈	-11.521
▁직업이	-11.5211
기능	-11.5212
▁비싸다	-11.5217
▁내맘같	-11.5218
▁여친과	-11.5226
▁본인만	-11.5229
보내주려	-11.5235
▁그후	-11.5235
▁오니	-11.5236
▁술이야	-11.5236
▁누구니	-11.5238
타이	-11.525
려야	-11.525
▁리액션	-11.5256
▁존중하는	-11.5257
것에	-11.5259
약이	-11.5259
▁때문일까	-11.5263
수라	-11.5263
▁보이는데	-11.5263
▁오래걸	-11.5265
▁낸다	-11.5265
▁뿌리	-11.5266
▁모르겠지	-11.5269
바싹	-11.527
▁잘못이지	-11.5276
▁축	-11.5281
방에	-11.5288
▁화내는	-11.5289
▁부끄러	-11.5292
▁패	-11.5293
▁가볼까	-11.5293
▁잊혀지네	-11.5293
▁빙	-11.5294
▁촬영	-11.5294
▁방향	-11.5297
▁세포	-11.5299
▁재회하고	-11.53
▁끝나네	-11.5302
체가	-11.5303
▁낫네	-11.531
쓰레기통	-11.531
▁키스	-11.531
▁놔주	-11.5318
▁될거	-11.5319
▁카톡하는	-11.5322
▁추우니	-11.5327
▁새장	-11.5333
▁다가갈	-11.5333
▁잘지내고	-11.5336
▁주차	-11.5336
▁외로워서	-11.534
▁사라지	-11.5341
건너	-11.5347
▁잘해줘서	-11.5354
▁못잊겠	-11.5355
해본적	-11.5357
▁가는거	-11.5358
▁한달인데	-11.536
움이	-11.5365
하자는	-11.5365
학번	-11.538
▁달래	-11.5381
▁다음주	-11.5385
▁취직이	-11.5387
▁사랑이란	-11.5392
유발	-11.5393
▁만나러가	-11.5398
▁정리해야할	-11.5402
▁다정	-11.5406
▁모르나봐	-11.5408
▁힘들대	-11.541
▁풀어주	-11.5411
▁헌신하	-11.5414
▁손이	-11.5414
▁알지만	-11.5426
셨을	-11.5428
▁경우에	-11.5438
▁전화할	-11.5439
통이	-11.5445
▁붙잡으려	-11.5446
▁커지기	-11.545
▁타이밍인	-11.5476
▁흔적이	-11.5476
표인	-11.5478
▁끈이었	-11.5481
▁어떤거	-11.5483
하셨나	-11.5484
났으면	-11.5486
린대	-11.5499
▁엉망	-11.5503
▁기억할	-11.5509
▁높이는	-11.551
▁그만둬야	-11.5512
▁날인	-11.5514
▁못했는	-11.5516
너에게	-11.5517
▁전여친이	-11.552
▁카톡하지	-11.5524
▁프	-11.5526
긴했는데	-11.5529
▁붙잡을	-11.5534
▁못하네	-11.5534
▁잘라야	-11.5541
▁유학간	-11.5542
▁날이야	-11.5542
잊어보려고	-11.5546
▁밤인	-11.5546
▁잊은	-11.5546
▁위로받	-11.5548
▁폭	-11.5548
▁아파할	-11.555
▁투	-11.5553
▁엄청나	-11.5554
▁롱	-11.5556
▁착각하	-11.5557
▁쌈	-11.5558
▁첫사랑인	-11.5559
▁했었	-11.557
▁구별	-11.558
▁해외여행가	-11.5583
▁이별인가봐	-11.5588
구만	-11.5591
▁가라	-11.5593
▁이별후에	-11.5598
하려나	-11.5602
▁음악이	-11.5609
▁기복	-11.5614
▁냉정하	-11.5616
못하겠어	-11.5618
▁불렀	-11.5624
▁죄인	-11.5628
▁받아들여야할	-11.5636
▁직장인이	-11.5638
론이	-11.5642
▁돌아왔	-11.5646
▁보수적이	-11.5649
▁전화하고	-11.565
▁키워보	-11.5652
▁털어버	-11.566
▁나오지	-11.5663
▁상처받아	-11.5665
▁지금까지	-11.5666
▁그사람은	-11.5672
▁사랑했는데	-11.5673
▁없었겠	-11.5675
▁슬퍼하	-11.5689
▁타로	-11.5693
곳에	-11.5698
▁가수	-11.5709
▁한편	-11.5713
▁꽝이	-11.5713
▁확	-11.5714
▁성숙해	-11.5719
▁처음만	-11.5719
▁내장	-11.5722
▁못자고	-11.5729
▁노력한	-11.573
▁싫은가	-11.5732
싶어요	-11.5745
▁정으로	-11.5746
▁되도	-11.5749
▁깊이	-11.5751
▁말려	-11.5752
▁속지	-11.5759
▁못잊는거	-11.5761
▁연락해보	-11.5765
▁적절	-11.5766
▁잡기	-11.5774
▁답답한가	-11.5784
▁많을까	-11.5789
정이	-11.5803
▁할래	-11.5815
▁왕따인	-11.5815
▁까먹지	-11.5822
해졌나봐	-11.5823
▁답답하	-11.583
▁햇	-11.5834
▁구경	-11.5838
▁기억하	-11.5839
▁공원	-11.5849
▁놈이	-11.5852
▁마셨어	-11.5854
여기	-11.5856
▁근	-11.5859
▁참아야겠	-11.586
만두	-11.5861
잡으려고	-11.5872
사고	-11.5872
▁침대에	-11.5874
▁하는걸	-11.5874
샤워해	-11.5879
▁찍은	-11.5881
▁이상이	-11.5889
▁남을까	-11.5905
▁영화보자	-11.5906
▁추	-11.5918
▁발전하	-11.5926
채나	-11.5941
▁하는건가	-11.5941
▁게임하	-11.5975
반짝	-11.5979
만이라	-11.5981
▁신기	-11.5985
▁짜증나게	-11.5986
▁클럽가	-11.599
▁짝사랑일	-11.599
▁오래타	-11.599
▁오나	-11.601
▁반가	-11.6012
▁올라오	-11.6029
▁제길	-11.6031
▁않음	-11.6034
▁지우려	-11.605
▁모의	-11.6054
▁후련할거	-11.6057
▁다녀온	-11.606
월해	-11.6082
▁운명같	-11.6082
▁말들	-11.6087
▁아무는	-11.6089
▁생각나서	-11.6117
▁왕	-11.6121
▁백	-11.6121
아볼	-11.6137
▁살인	-11.6143
▁단톡방에	-11.6145
▁투자하는	-11.6147
▁애야	-11.6157
▁잘된	-11.6163
▁최악이	-11.6163
▁전해지	-11.6168
마시러	-11.6173
했잖아	-11.6176
▁단계라	-11.619
거였네	-11.6198
았다	-11.6203
기네	-11.6208
사이	-11.6211
트인	-11.6211
▁부담스러워해	-11.6216
▁자만	-11.6216
▁지쳐가	-11.6222
▁내편	-11.6226
▁필요없	-11.6228
▁했을까	-11.623
▁후회되	-11.6234
▁전부였	-11.6236
▁먼저하는	-11.624
동을	-11.6281
▁선물할	-11.6286
성적이	-11.6292
지금	-11.6298
▁좋아하면서	-11.6321
▁헤어진다	-11.6339
▁부르는	-11.6349
▁잊어야해	-11.6351
▁모르지	-11.6356
▁가봐	-11.6359
▁별이	-11.6374
어주지	-11.6374
▁만큼만	-11.638
▁언	-11.6386
그여자	-11.6394
▁안해야	-11.6402
▁궁	-11.6417
▁지키는	-11.6418
▁이별했어	-11.6447
▁중독인가	-11.6449
▁기억안	-11.6462
▁잔소리	-11.6481
▁단순하	-11.6487
▁만날수	-11.6498
▁망설여지	-11.6499
▁남긴	-11.6503
▁진지한	-11.6506
▁막혔	-11.6523
▁잊어야겠	-11.6546
생긴	-11.6548
▁피곤할	-11.6562
▁생겼다는	-11.6612
주면	-11.6614
었다는	-11.6618
▁싫어할	-11.6623
▁차렸을	-11.6628
▁공부한	-11.6634
▁따듯해	-11.6644
꺼야	-11.6679
▁붙였	-11.6689
▁반복될까	-11.669
▁철벽치	-11.6696
▁할일	-11.6714
▁밤이네	-11.6718
분들께	-11.672
▁연애상담	-11.6721
▁울적하	-11.6728
▁바람이	-11.6742
▁술마시면	-11.6749
▁변할까	-11.6758
▁잘못했다	-11.6762
로라	-11.6765
▁만들어주	-11.6773
조심하	-11.6776
▁어색할까	-11.6783
돌이	-11.6783
▁포기하려	-11.6794
▁가보	-11.6808
▁편하겠	-11.681
▁관심있는	-11.6817
▁매달렸	-11.6829
▁이런건	-11.6836
▁울었	-11.684
▁연락해봐	-11.6848
▁어떤건	-11.6861
▁익숙해졌	-11.6871
▁사람일까	-11.6887
▁절친이	-11.6896
▁과식했	-11.6904
▁바보라	-11.6912
▁복잡하네	-11.6921
▁체	-11.6933
▁가득한가	-11.6946
와주	-11.6949
▁화냈	-11.6957
▁너그	-11.6963
▁척도	-11.6985
▁놓았	-11.6988
내야하나	-11.6992
▁기한	-11.7016
다는걸	-11.7024
▁덜해	-11.7057
▁비워	-11.7058
▁군대가	-11.7105
▁가망	-11.7108
▁일일	-11.7113
▁이별하려	-11.7136
된다	-11.7149
▁보름달이	-11.7151
▁불행해	-11.7153
▁놓아줬	-11.718
▁그런건	-11.7222
▁못하는거	-11.7255
▁공시생이	-11.726
▁투자라	-11.7278
주신	-11.7279
들이지	-11.7311
▁놓쳤	-11.7311
▁아니었나봐	-11.7327
▁사랑인	-11.7344
▁하고싶어	-11.7352
▁운동하자	-11.7354
▁힘들어하	-11.7363
소식을	-11.7431
▁놀랐겠	-11.7435
되겠죠	-11.7435
▁저장할	-11.7438
▁개같	-11.7485
▁타나봐	-11.7489
용해	-11.7526
한건지	-11.7529
▁차별받	-11.7544
▁잠수이별인	-11.7557
▁가네	-11.7561
▁생각해야	-11.7576
거지같이	-11.7596
▁다른일	-11.7596
하게하	-11.7602
▁지켜야	-11.7606
들은	-11.7617
▁하나봐	-11.766
것인가	-11.7668
▁생각하세	-11.7725
▁은퇴해야	-11.7742
있는건지	-11.7756
져야	-11.7765
진지	-11.7766
▁운명인	-11.7831
▁여행가는	-11.7857
▁반이라	-11.7864
갈래	-11.7867
▁표현해주	-11.7886
어리	-11.7891
▁두려운가	-11.7891
▁챙겨줄	-11.7904
▁지나갔네	-11.7934
▁떨리네	-11.7935
▁살랑	-11.7938
▁나빠졌	-11.7987
▁행동을	-11.7998
▁잘되	-11.8003
▁놓으려	-11.8004
천하	-11.8009
▁제자리걸음이	-11.8024
▁헤어진건	-11.8024
▁조심해야겠	-11.805
었음	-11.8084
▁받으려	-11.8086
다니고	-11.8097
▁달째	-11.8099
▁우는	-11.8124
▁싱숭생숭하	-11.8126
적이	-11.8128
▁그리워지	-11.8134
▁힘들일이	-11.8134
하더라고요	-11.8137
▁싶어서	-11.8154
▁했더	-11.8165
거래	-11.8176
▁돼지	-11.8198
가봅	-11.8201
할까봐	-11.8207
▁흐르네	-11.8245
▁보고싶어요	-11.8275
▁차단한	-11.8281
같았	-11.8285
▁안해서	-11.8287
으시는	-11.8312
▁몰랐네	-11.8325
만나자는	-11.8345
▁돋	-11.8366
▁움	-11.8374
▁줄이고	-11.845
▁그만하	-11.8459
▁끝내려	-11.8462
왔을	-11.8463
▁살았다	-11.8466
▁예	-11.8466
▁되었어	-11.8471
려지	-11.8471
이신	-11.8481
맘이	-11.8484
▁만납	-11.8502
▁안되었	-11.852
▁나을가	-11.8524
▁힘들만	-11.8544
▁꿈이라	-11.8545
나네	-11.859
▁당황스러	-11.8616
▁얼마전	-11.863
사람들	-11.8634
▁답답했	-11.8727
▁재밌겠	-11.8734
▁그런거	-11.8736
▁싸움이	-11.8747
▁아쉽지	-11.8784
▁못하겠네	-11.8786
길게	-11.88
▁건네	-11.8838
점이	-11.8843
▁지내자	-11.8849
이었는데	-11.887
▁알아버렸	-11.8873
▁내릴까	-11.8897
▁표시하	-11.8907
▁못하니	-11.8907
▁신청했	-11.892
▁사랑하는건	-11.8953
할텐데	-11.8953
▁더럽	-11.8988
싶다	-11.8993
해가	-11.9005
해보시는	-11.9041
▁생각나기	-11.9061
▁존재하	-11.9062
해주면	-11.9077
왔으면	-11.9094
▁돌아가면	-11.911
▁찍었	-11.9129
뭐냐	-11.9132
▁먹어보	-11.9141
▁습관이라	-11.9181
돋을	-11.9185
만하는	-11.9212
▁순간에	-11.9216
기면	-11.9238
들음	-11.927
말이라	-11.9271
▁준비해야	-11.9295
▁취업하	-11.9302
▁왜이	-11.9329
가운	-11.9352
▁중요하겠지	-11.9368
▁풀렸다	-11.9379
시간에	-11.939
▁휴지	-11.9411
▁잊어주	-11.9418
▁들리네	-11.9443
▁평가해	-11.946
▁감성적	-11.9464
▁중이	-11.9465
▁도네	-11.9478
하겟	-11.9495
▁헤어지겠	-11.9503
온	-11.9543
▁신청해	-11.9544
다주	-11.9546
▁봐봐	-11.9561
▁비슷한가	-11.9627
▁산책하	-11.9627
▁그러려	-11.9632
▁보자는	-11.9672
▁아닌것	-11.9696
적을	-11.9717
보내	-11.9718
▁착각일	-11.9725
안했을	-11.973
었을까	-11.9735
▁후련하다	-11.9738
▁아침이에	-11.9746
여행이	-11.9767
올라	-11.9832
▁이시간	-11.9837
▁필요하다	-11.9837
▁서운하겠	-11.9841
▁치는	-11.988
싶어지네	-11.9904
▁나약하	-11.9922
▁몇시간	-11.9926
▁힘드신	-11.9931
다면서	-11.9937
해줄까	-11.9966
▁아니였	-11.997
먹었다	-11.9995
학원에	-12.004
▁케	-12.0055
▁추억을	-12.0064
보고싶어	-12.0066
기예	-12.0069
▁잊었는	-12.0086
고있는데	-12.0102
▁피곤하겠	-12.0102
줄래	-12.0124
▁불안	-12.0177
▁멍청하	-12.0189
▁밥도	-12.0201
시간만큼	-12.023
▁사먹	-12.0254
▁아쉽겠	-12.0261
▁진정하	-12.0278
▁반이	-12.0282
편이	-12.0311
▁해야되	-12.0317
▁걸렸	-12.0339
▁터지겠	-12.0345
▁여자에	-12.0369
▁맞춰보	-12.0372
▁놀리	-12.0376
▁맞는건	-12.0378
▁힘든건	-12.0395
일이야	-12.041
▁실망했	-12.0413
▁대하	-12.0425
▁끝나가	-12.0435
▁힘들기	-12.044
해가는	-12.0461
낸	-12.1837
끔	-12.3519
빠	-12.3802
틀	-12.3847
같	-12.3848
갔	-12.4179
쳤	-12.4181
느	-12.4205
브	-12.4225
잡	-12.4236
왔	-12.4297
듣	-12.4361
밀	-12.4412
춘	-12.4414
핑	-12.4415
깜	-12.4418
쥐	-12.4418
잇	-12.4418
똥	-12.4418
밤	-12.442
경	-12.4422
흘	-12.4434
놓	-12.4434
쟁	-12.4464
덜	-12.4468
났	-12.4473
둬	-12.4489
꼬	-12.4493
놀	-12.4493
듬	-12.4533
홀	-12.4552
콕	-12.4553
낀	-12.4553
썩	-12.4554
툭	-12.4554
밑	-12.4554
랐	-12.4558
펴	-12.4576
칼	-12.4579
악	-12.4585
떼	-12.4587
쭉	-12.4587
흠	-12.4587
털	-12.4587
즐	-12.4588
짜	-12.459
누	-12.4592
굴	-12.4593
응	-12.4594
찾	-12.4596
교	-12.4597
켜	-12.4598
윗	-12.4601
쫄	-12.4601
농	-12.4601
냉	-12.4601
큼	-12.4603
잠	-12.4604
활	-12.4605
모	-12.4607
탔	-12.4607
덕	-12.4608
효	-12.4608
밟	-12.4609
벽	-12.4609
베	-12.4613
낳	-12.4614
찼	-12.4614
멋	-12.4615
잊	-12.4616
숨	-12.4616
써	-12.462
쓴	-12.4623
9	-12.4624
귀	-12.4625
등	-12.4626
뜻	-12.4626
막	-12.4627
깊	-12.4627
쐬	-12.4628
떨	-12.4629
졸	-12.463
떠	-12.4631
술	-12.4633
곧	-12.4633
왜	-12.4634
꽃	-12.4634
알	-12.4634
손	-12.4635
얼	-12.4635
꼭	-12.4635
람	-12.4736
현	-12.4756
긋	-12.481
쁘	-12.482
립	-12.487
딛	-12.4882
련	-12.4885
혹	-12.4886
꼈	-12.4888
벼	-12.489
혔	-12.4891
렀	-12.4893
듭	-12.4893
쁠	-12.4895
빴	-12.4898
뜰	-12.4899
깝	-12.4899
황	-12.49
닿	-12.4901
톱	-12.4901
컥	-12.4901
맙	-12.4902
봇	-12.4903
턴	-12.4903
쩔	-12.4903
콤	-12.4904
욜	-12.4904
졋	-12.4904
몽	-12.4904
칭	-12.4904
램	-12.4904
낭	-12.4904
딜	-12.4905
묵	-12.4905
익	-12.4905
률	-12.4905
댄	-12.4905
긍	-12.4905
냄	-12.4905
딘	-12.4905
령	-12.4905
첩	-12.4905
춤	-12.4905
콘	-12.4905
팍	-12.4905
퓨	-12.4905
쪘	-13.823
짬	-13.8231
젊	-13.8232
옮	-13.8233
옛	-13.8234
얇	-13.8235
씸	-13.8236
씰	-13.8237
썰	-13.8238
숏	-13.8239
섰	-13.824
섣	-13.8241
섞	-13.8242
샐	-13.8243
뽕	-13.8244
뺏	-13.8245
볕	-13.8246
륜	-13.8247
띵	-13.8248
덮	-13.8249
댔	-13.825
논	-13.8251
꼴	-13.8252
깼	-13.8253
깬	-13.8254
괘	-13.8255
겜	-13.8256
g	-13.8257
홧	-13.8258
홈	-13.8259
헹	-13.826
헐	-13.8261
텅	-13.8262
텀	-13.8263
턱	-13.8264
쿵	-13.8265
캬	-13.8266
측	-13.8267
짼	-13.8268
엿	-13.8269
엊	-13.827
얽	-13.8271
앱	-13.8272
숫	-13.8273
묘	-13.8274
몬	-13.8275
렐	-13.8276
랙	-13.8277
랖	-13.8278
뜬	-13.8279
떴	-13.828
됬	-13.8281
눕	-13.8282
눌	-13.8283
뇌	-13.8284
꿰	-13.8285
꽝	-13.8286
깰	-13.8287
겉	-13.8288
갱	-13.8289
훔	-13.829
핫	-13.8291
텁	-13.8292
컸	-13.8293
촬	-13.8294
총	-13.8295
짰	-13.8296
좌	-13.8297
웹	-13.8298
밉	-13.8299
몫	-13.83
멘	-13.8301
맺	-13.8302
맴	-13.8303
릇	-13.8304
뚫	-13.8305
넷	-13.8306
꽉	-13.8307
꼰	-13.8308
굳	-13.8309
겪	-13.831
갠	-13.8311
헌	-13.8312
폼	-13.8313
팠	-13.8314
팀	-13.8315
탓	-13.8316
쿨	-13.8317
켰	-13.8318
왠	-13.8319
엮	-13.832
씌	-13.8321
쏠	-13.8322
쏟	-13.8323
삐	-13.8324
쁨	-13.8325
빚	-13.8326
볍	-13.8327
렜	-13.8328
렛	-13.8329
긁	-13.833
흑	-13.8331
헥	-13.8332
틋	-13.8333
툼	-13.8334
퀴	-13.8335
찜	-13.8336
젯	-13.8337
옳	-13.8338
썹	-13.8339
쌍	-13.834
슈	-13.8341
쉴	-13.8342
묻	-13.8343
릎	-13.8344
롤	-13.8345
둠	-13.8346
돋	-13.8347
늠	-13.8348
낚	-13.8349
광	-13.835
곱	-13.8351
c	-13.8352
휘	-13.8353
툴	-13.8354
켠	-13.8355
쪼	-13.8356
징	-13.8357
쌩	-13.8358
싼	-13.8359
낙	-13.836
끓	-13.8361
객	-13.8362
훈	-13.8363
짱	-13.8364
젖	-13.8365
웬	-13.8366
얻	-13.8367
씁	-13.8368
섬	-13.8369
뽀	-13.837
뢰	-13.8371
렬	-13.8372
땡	-13.8373
늙	-13.8374
낄	-13.8375
찔	-13.8376
엉	-13.8377
띄	-13.8378
땀	-13.8379
닮	-13.838
녹	-13.8381
넓	-13.8382
검	-13.8383
앉	-13.8384
샤	-13.8385
벚	-13.8386
맡	-13.8387
뤄	-13.8388
랫	-13.8389
딪	-13.839
꾹	-13.8391
겹	-13.8392
헬	-13.8393
잃	-13.8394
옥	-13.8395
빡	-13.8396
밝	-13.8397
렘	-13.8398
깎	-13.8399
곁	-13.84
컴	-13.8401
씻	-13.8402
뽑	-13.8403
뛰	-13.8404
딴	-13.8405
넣	-13.8406
낮	-13.8407
규	-13.8408
걔	-13.8409
a	-13.841
푹	-13.8411
춥	-13.8412
씹	-13.8413
렌	-13.8414
닫	-13.8415
갚	-13.8416
컨	-13.8417
썼	-13.8418
슷	-13.8419
딸	-13.842
꼼	-13.8421
귈	-13.8422
잤	-13.8423
뒷	-13.8424
뉴	-13.8425
뀔	-13.8426
8	-13.8427
웨	-13.8428
녁	-13.8429
뀌	-13.843
깔	-13.8431
깍	-13.8432
7	-13.8433
획	-13.8434
텨	-13.8435
셀	-13.8436
됩	-13.8437
눠	-13.8438
걷	-13.8439
엽	-13.844
샀	-13.8441
삭	-13.8442
쌓	-13.8443
싱	-13.8444
멈	-13.8445
권	-13.8446
희	-13.8447
삼	-13.8448
밍	-13.8449
헛	-13.845
틱	-13.8451
옆	-13.8452
북	-13.8453
쇼	-13.8454
섭	-13.8455
끄	-13.8456
탁	-13.8457
벗	-13.8458
n	-13.8459
숭	-13.846
멍	-13.8461
헷	-13.8462
잖	-13.8463
읽	-13.8464
삶	-13.8465
높	-13.8466
낫	-13.8467
뎌	-13.8468
멀	-13.8469
렵	-13.847
득	-13.8471
녕	-13.8472
깐	-13.8473
엇	-13.8474
흔	-13.8475
빌	-13.8476
흐	-13.8477
끊	-13.8478
괴	-13.8479
퇴	-13.848
짧	-13.8481
승	-13.8482
랜	-13.8483
밌	-13.8484
덤	-13.8485
픔	-13.8486
핸	-13.8487
몇	-13.8488
똑	-13.8489
풍	-13.849
슴	-13.8491
뭔	-13.8492
뻐	-13.8493
씀	-13.8494
닐	-13.8495
0	-13.8496
맨	-13.8497
평	-13.8498
s	-13.8499
첫	-13.85
풀	-13.8501
챙	-13.8502
죽	-13.8503
존	-13.8504
험	-13.8505
격	-13.8506
최	-13.8507
엄	-13.8508
럼	-13.8509
떤	-13.851
뭘	-13.8511
슨	-13.8512
,	-13.8513
앞	-13.8514
걱	-13.8515
쉽	-13.8516
믿	-13.8517
겼	-13.8518
택	-13.8519
닌	-13.852
접	-13.8521
랄	-13.8522
몰	-13.8523
럴	-13.8524
억	-13.8525
변	-13.8526
싫	-13.8527
쓰	-13.8528
맞	-13.8529
떻	-13.853
렇	-13.8531
졌	-13.8532
편	-13.8533
괜	-13.8534
찮	-13.8535
뭐	-13.8536
!	-13.8537
받	-13.8538
습	-13.8539
혼	-13.854
썸	-13.8541
헤	-13.8542
않	-13.8543
많	-13.8544
힘	-13.8545
싶	-13.8546
없	-13.8547
생	-13.8548
?	-13.8549
좋	-13.855
.	-13.8551
